[PAD]
[UNK]
[CLS]
[SEP]
[MASK]
<S>
<T>
!
"
#
$
%
&
'
(
)
*
+
,
-
.
/
0
1
2
3
4
5
6
7
8
9
:
;
<
=
>
?
@
[
\
]
^
_
`
a
b
c
d
e
f
g
h
i
j
k
l
m
n
o
p
q
r
s
t
u
v
w
x
y
z
{
|
}
~
¡
£
¤
¥
©
«
®
°
·
»
¿
×
ß
ø
đ
ı
œ
ʼ
α
ι
а
в
д
е
и
л
м
н
о
п
р
с
т
ь
ב
ו
י
ל
ם
،
؛
؟
ء
ا
ب
ة
ت
ث
ج
ح
خ
د
ذ
ر
ز
س
ش
ص
ض
ط
ظ
ع
غ
ف
ق
ك
ل
م
ن
ه
و
ى
ي
٠
١
٢
٣
٤
٥
٦
٧
٨
٩
٪
٫
٬
٭
ٱ
ٲ
ٸ
ٹ
ٽ
پ
چ
ڈ
ڑ
ړ
ڕ
ژ
ڜ
ڢ
ڤ
ڥ
ڨ
ک
ڪ
ګ
ڭ
گ
ڵ
ں
ھ
ہ
ۃ
ۆ
ی
ێ
ې
ے
۔
ە
ۦ
۰
۱
۲
۳
۴
۵
۶
۸
۽
ݣ
क
त
द
प
म
य
र
ह
ा
ि
ी
ಠ
ღ
ᄉ
ᄋ
ᄏ
ᄐ
ᅡ
ᅣ
ᅩ
ᅵ
ᆫ
ᆷ
–
—
‘
’
“
”
•
…
‼
‿
⁉
€
⃣
←
↓
↔
↖
↗
↙
↩
↪
⇦
√
⌚
⌛
⏪
⏰
⏳
━
┛
┻
■
▪
▫
▶
◀
◇
○
◍
●
◾
☀
☁
★
☆
☎
☑
☔
☕
☘
☜
☝
☠
☹
☺
☻
♀
♂
♓
♔
♚
♠
♡
♣
♤
♥
♦
♧
♨
♪
♫
♻
⚘
⚜
⚠
⚡
⚪
⚫
⚽
⛄
⛅
⛈
⛔
✅
✈
✉
✊
✋
✌
✍
✏
✒
✓
✔
✖
✧
✨
✴
✿
❀
❄
❇
❌
❎
❓
❗
❣
❤
❶
➖
➡
➿
⠀
⤵
⬅
⬆
⬇
⭐
⭕
ⴰ
ⵉ
ⵏ
ⵙ
《
》
〰
〽
シ
ツ
ㅤ
彡
ﭘ
ﭨ
ﮈ
ﮐ
ﮔ
ﮟ
ﮧ
ﮨ
ﮭ
ﮯ
ﯕ
ﯽ
ﯾ
ﯿ
﴾
﴿
ﷲ
ﷴ
ﷺ
ﷻ
ﺀ
ﺁ
ﺂ
ﺃ
ﺄ
ﺆ
ﺇ
ﺊ
ﺋ
ﺌ
ﺍ
ﺎ
ﺏ
ﺐ
ﺑ
ﺒ
ﺓ
ﺔ
ﺕ
ﺖ
ﺗ
ﺘ
ﺚ
ﺛ
ﺜ
ﺝ
ﺞ
ﺟ
ﺠ
ﺡ
ﺢ
ﺣ
ﺤ
ﺦ
ﺧ
ﺨ
ﺩ
ﺪ
ﺫ
ﺬ
ﺭ
ﺮ
ﺯ
ﺰ
ﺱ
ﺲ
ﺳ
ﺴ
ﺵ
ﺶ
ﺷ
ﺸ
ﺹ
ﺺ
ﺻ
ﺼ
ﺽ
ﺾ
ﺿ
ﻀ
ﻁ
ﻂ
ﻃ
ﻄ
ﻈ
ﻉ
ﻊ
ﻋ
ﻌ
ﻏ
ﻐ
ﻑ
ﻒ
ﻓ
ﻔ
ﻕ
ﻖ
ﻗ
ﻘ
ﻙ
ﻚ
ﻛ
ﻜ
ﻝ
ﻞ
ﻟ
ﻠ
ﻡ
ﻢ
ﻣ
ﻤ
ﻥ
ﻦ
ﻧ
ﻨ
ﻩ
ﻪ
ﻫ
ﻬ
ﻭ
ﻮ
ﻯ
ﻰ
ﻱ
ﻲ
ﻳ
ﻴ
ﻵ
ﻷ
ﻹ
ﻻ
ﻼ
￼
🅰
🆕
🇦
🇧
🇨
🇩
🇪
🇫
🇬
🇭
🇮
🇯
🇰
🇱
🇲
🇳
🇴
🇵
🇶
🇷
🇸
🇹
🇺
🇼
🇾
🇿
🌀
🌃
🌄
🌅
🌆
🌇
🌈
🌊
🌋
🌌
🌍
🌎
🌏
🌐
🌑
🌔
🌕
🌙
🌚
🌛
🌜
🌝
🌞
🌟
🌠
🌤
🌧
🌪
🌱
🌲
🌳
🌴
🌶
🌷
🌸
🌹
🌺
🌻
🌼
🌾
🌿
🍀
🍁
🍂
🍃
🍅
🍆
🍇
🍉
🍊
🍋
🍌
🍎
🍏
🍑
🍒
🍓
🍔
🍕
🍖
🍗
🍞
🍟
🍩
🍪
🍫
🍬
🍭
🍯
🍰
🍲
🍳
🍴
🍵
🍷
🍸
🍹
🍺
🍻
🍼
🍾
🎀
🎁
🎂
🎃
🎄
🎅
🎆
🎇
🎈
🎉
🎊
🎋
🎓
🎖
🎗
🎙
🎤
🎥
🎧
🎩
🎬
🎭
🎮
🎯
🎵
🎶
🎸
🎹
🎻
🎼
🏁
🏃
🏄
🏅
🏆
🏊
🏋
🏠
🏡
🏥
🏩
🏮
🏳
🏴
🏵
🏻
🏼
🏽
🏾
🏿
🐀
🐄
🐇
🐈
🐍
🐏
🐐
🐑
🐒
🐓
🐔
🐕
🐜
🐝
🐟
🐣
🐥
🐦
🐩
🐪
🐫
🐯
🐰
🐱
🐴
🐵
🐶
🐸
🐺
🐼
👀
👁
👂
👃
👄
👅
👆
👇
👈
👉
👊
👋
👌
👍
👎
👏
👐
👑
👓
👕
👖
👗
👙
👛
👜
👠
👡
👣
👤
👥
👦
👧
👨
👩
👪
👫
👬
👭
👮
👯
👰
👱
👳
👴
👵
👶
👷
👸
👹
👺
👻
👼
👽
👿
💀
💁
💃
💄
💅
💆
💇
💉
💊
💋
💌
💍
💎
💏
💐
💑
💓
💔
💕
💖
💗
💘
💙
💚
💛
💜
💝
💞
💟
💠
💡
💢
💣
💤
💥
💦
💧
💨
💩
💪
💫
💬
💭
💮
💯
💰
💲
💴
💵
💶
💷
💸
💻
💼
📌
📍
📖
📚
📝
📞
📢
📣
📧
📨
📩
📱
📲
📷
📸
📹
📺
📻
📽
🔊
🔐
🔔
🔕
🔗
🔘
🔙
🔚
🔜
🔝
🔞
🔥
🔨
🔪
🔫
🔮
🔰
🔱
🔴
🔵
🔶
🔸
🔹
🕊
🕋
🕌
🕛
🕯
🕵
🕺
🖐
🖒
🖓
🖕
🖤
🖥
🗝
🗡
🗣
🗨
🗿
😀
😁
😂
😃
😄
😅
😆
😇
😈
😉
😊
😋
😌
😍
😎
😏
😐
😑
😒
😓
😔
😕
😖
😗
😘
😙
😚
😛
😜
😝
😞
😟
😠
😡
😢
😣
😤
😥
😦
😧
😨
😩
😪
😫
😬
😭
😮
😯
😰
😱
😲
😳
😴
😵
😶
😷
😸
😹
😺
😻
😼
😽
😾
😿
🙀
🙁
🙂
🙃
🙄
🙅
🙆
🙇
🙈
🙉
🙊
🙋
🙌
🙍
🙎
🙏
🚀
🚑
🚔
🚖
🚗
🚘
🚨
🚩
🚪
🚫
🚬
🚮
🚶
🚿
🛍
🛎
🛑
🛫
🤍
🤎
🤐
🤑
🤒
🤓
🤔
🤕
🤗
🤘
🤙
🤚
🤛
🤜
🤝
🤞
🤟
🤠
🤡
🤢
🤣
🤤
🤥
🤦
🤧
🤨
🤩
🤪
🤫
🤬
🤭
🤮
🤯
🤰
🤱
🤲
🤳
🤴
🤷
🤸
🥀
🥁
🥂
🥇
🥊
🥰
🥳
🥴
🥵
🥶
🥺
🦁
🦅
🦋
🧏
🧐
🧕
🧚
🧠
🧡
##و
##ن
##ط
##ت
##ح
##س
##ا
##م
##ش
##ك
##ي
##ى
##ع
##😁
##😂
##ر
##د
##ز
##ب
##ﺑ
##ﻴ
##ﻪ
##ل
##🤩
##u
##r
##l
##ص
##0
##9
##1
##2
##5
##3
##7
##i
##d
##خ
##ة
##ج
##💇
##💆
##👸
##⚘
##ه
##گ
##ض
##ی
##ف
##ق
##o
##a
##c
##h
##n
##غ
##ھ
##e
##z
##ث
##🏃
##ذ
##🙃
##😄
##😏
##👍
##w
##ظ
##ڭ
##b
##t
##🌚
##🌹
##ء
##s
##g
##😠
##x
##ۆ
##p
##٢
##٠
##٤
##😙
##☜
##f
##4
##ک
##💼
##ہ
##ﺪ
##ﺍ
##ﺧ
##ﻞ
##ﺎ
##ﺗ
##ﺴ
##ﻨ
##ﻰ
##چ
##ݣ
##😘
##💋
##❤
##🤱
##ﻟ
##ﺸ
##ﻔ
##ﺭ
##ﺓ
##👈
##😊
##پ
##🏻
##🙂
##ﺼ
##ﻭ
##😍
##🥰
##🙏
##🤗
##😅
##ﻻ
##👅
##🤣
##m
##👌
##👏
##ﺤ
##😭
##😼
##🤲
##🇩
##🇿
##ﺘ
##ﻮ
##ﻑ
##k
##😜
##💛
##v
##😌
##🔱
##💑
##ﻠ
##ﻢ
##😒
##ڤ
##y
##😗
##😕
##😉
##8
##6
##😇
##💸
##💲
##💰
##💪
##☺
##ﻡ
##ۃ
##💐
##✌
##👊
##🤦
##♂
##🌅
##🤭
##❣
##🌷
##👆
##🇦
##🇲
##☝
##ﻳ
##ﻲ
##😡
##👇
##💕
##👋
##😬
##ﻙ
##♥
##🤨
##💖
##✔
##ﺞ
##🎩
##ﻤ
##ﺳ
##ﺨ
##ﻦ
##ﻷ
##😴
##💯
##😔
##😛
##🍂
##😎
##ﻈ
##ﻣ
##💔
##😖
##✊
##😻
##💞
##😃
##😚
##🙅
##👄
##🙌
##💚
##ﺖ
##💗
##ﺮ
##ﺣ
##ﺔ
##🤔
##ﻌ
##🔥
##🐣
##🚀
##👬
##🤧
##ﺰ
##😝
##ﺏ
##😤
##😱
##😷
##🌺
##😑
##💝
##😋
##💎
##🎶
##🎵
##😢
##🏼
##♀
##😪
##ﻧ
##ﺲ
##ﻯ
##ﻄ
##ﺐ
##🏆
##ﺻ
##🤑
##😥
##ﻼ
##ﻫ
##😓
##🇴
##😰
##🤫
##ڑ
##🖤
##ﻓ
##♡
##🥺
##👎
##ﺒ
##ﻜ
##ﺶ
##🐀
##💜
##ﻬ
##✍
##ﻘ
##ﺱ
##ﺟ
##🇸
##🇪
##ﻗ
##ﻒ
##✨
##j
##🇮
##🇶
##⚠
##ᅡ
##ᄋ
##ᅵ
##ᆫ
##😹
##🤥
##ګ
##✋
##🎓
##ﺵ
##ﻛ
##⭐
##🚶
##💙
##🦋
##🌲
##ﻖ
##😈
##🏽
##ے
##😳
##😧
##👨
##👩
##👧
##ﺷ
##❎
##🐏
##🔴
##😆
##🙄
##ﯽ
##ﻋ
##😀
##👮
##😩
##ﻚ
##🖕
##🙆
##🌼
##🔸
##🌸
##🌃
##ﯕ
##💓
##🌾
##😣
##ﻉ
##🤷
##ە
##😨
##🍃
##🤜
##🥇
##☻
##ﺋ
##🍹
##٩
##⤵
##🙋
##👉
##€
##ڨ
##ﺕ
##🌞
##🔪
##👗
##👠
##👐
##ﺩ
##😯
##👀
##🤍
##🕊
##ڢ
##☹
##ٹ
##👃
##q
##🖒
##🌈
##🥴
##🎈
##🌝
##🧐
##🐸
##○
##✅
##ﻹ
##ں
##🐍
##💥
##🧡
##🌟
##😶
##ﺯ
##ﻏ
##×
##😲
##ﺝ
##😐
##🤘
##🇧
##🇷
##🌠
##😫
##म
##💢
##🐦
##🎉
##🤓
##🌳
##🥀
##🖐
##🎂
##🎊
##ٱ
##💘
##🇬
##👑
##❄
##🤬
##🌌
##🎆
##🎇
##🎁
##🎀
##ι
##α
##🚩
##🌜
##🌛
##ڈ
##💏
##ﻱ
##⚡
##❀
##۰
##۱
##۸
##😞
##💃
##ﻐ
##ړ
##🏵
##🍏
##👽
##💵
##ﻃ
##٥
##ﻩ
##🏾
##🚬
##🔫
##💁
##📢
##🙈
##🥊
##🐕
##🙊
##ێ
##ﯿ
##🥂
##ﻝ
##🇺
##🇳
##ı
##ⵙ
##ⵏ
##🕋
##💀
##ﺠ
##▪
##😿
##ﻕ
##🤮
##💤
##🤟
##🔔
##ﯾ
##🎯
##°
##🥳
##💩
##💻
##🔹
##ﺃ
##☆
##🇵
##ﺬ
##🍀
##🗿
##🤕
##👿
##ﺆ
##🏳
##🍒
##🍷
##￼
##👦
##ﺜ
##🌀
##👰
##👹
##🍁
##🍩
##🍬
##🍰
##🛑
##🤛
##ﻥ
##🤠
##👻
##☠
##ژ
##💦
##🤪
##ל
##ו
##ם
##🔞
##٦
##ٸ
##▶
##ﭘ
##✈
##🐯
##ﻊ
##ﺂ
##ﷲ
##👥
##⚽
##🧕
##🌻
##❗
##😮
##◀
##¤
##😸
##🌱
##👱
##👤
##👕
##ﻀ
##💄
##👵
##🇱
##🇾
##١
##🇨
##🤐
##😦
##👪
##💍
##🐒
##💟
##ڪ
##💣
##🇰
##🇼
##🇭
##🇫
##٧
##٣
##❌
##🐈
##ø
##🌿
##🍭
##🎄
##☘
##👖
##👜
##●
##💡
##📚
##🇹
##💠
##🦅
##😟
##🔝
##ב
##י
##☕
##🤯
##🐴
##🌊
##🤚
##😺
##🥁
##🍟
##🍔
##🍫
##🙍
##💫
##٨
##🙁
##ﮯ
##🏁
##🏴
##ﺡ
##м
##е
##р
##т
##и
##↔
##😵
##⬅
##🌍
##🤢
##🎤
##🎧
##🎹
##🎸
##💌
##🤒
##👶
##🎼
##☔
##🌔
##🤝
##🌏
##🐝
##🍻
##🐑
##💮
##🐱
##⬇
##ڕ
##ﻂ
##🍪
##ﺿ
##🍊
##⛔
##🙇
##✿
##🌋
##🐶
##🇯
##۶
##🏊
##☀
##👁
##ڜ
##ﺄ
##🌐
##🍎
##👂
##ﻵ
##📱
##🏿
##👫
##🚘
##🚗
##🚿
##🐰
##🐥
##🦁
##🕵
##ⴰ
##🌙
##👷
##र
##ा
##🎻
##🤙
##🎮
##🤸
##🌧
##⛈
##💨
##🍖
##🌪
##🚨
##ې
##🙎
##🐩
##📩
##⏪
##📣
##❓
##ﺹ
##🏠
##★
##🤤
##🔮
##✴
##🚪
##👭
##🎭
##👣
##🌑
##🚮
##📌
##🤎
##🚫
##ﺾ
##🐵
##🕌
##ᄉ
##ᅩ
##▫
##🤞
##ﺀ
##🌴
##💧
##💉
##ﻁ
##⚪
##ﺢ
##♣
##👺
##🔐
##📍
##ﺫ
##प
##य
##🔊
##ڵ
##⃣
##🔰
##🧠
##↓
##🐺
##♤
##🎙
##🍉
##➖
##ﷺ
##🏩
##🤰
##◇
##🍋
##🥵
##🎬
##🌶
##👳
##📲
##📞
##💬
##🔙
##📝
##🍾
##🍞
##👓
##💴
##♓
##о
##♦
##🎥
##📷
##📺
##✖
##👼
##🍵
##👙
##🏄
##🍕
##⏳
##ﺺ
##🙉
##л
##н
##а
##🍼
##🍌
##🕺
##↩
##🏡
##🗣
##👴
##📽
##💶
##🍲
##ٲ
##🗝
##💅
##в
##ь
##⏰
##🗡
##🚑
##🔵
##🍳
##🐫
##🚔
##ﺁ
##🧚
##☑
##ﺽ
##🍸
##シ
##🍆
##♧
##😽
##🌆
##ﮧ
##☁
##🍓
##🍯
##🅰
##⛅
##✓
##ﺌ
##↗
##🍺
##🔜
##ﮐ
##🎗
##🎖
##®
##🐇
##↖
##🛫
##💭
##🍗
##ﺛ
##⚫
##⠀
##क
##द
##ी
##🛍
##✏
##¥
##ಠ
##⚜
##۽
##📖
##😾
##🐓
##🐐
##🐜
##🙀
##🍇
##⭕
##ღ
##ﺦ
##ﺇ
##🌎
##♠
##ᆷ
##ⵉ
##🤡
##📹
##⛄
##🗨
##☎
##⌚
##🔚
##📸
##д
##🤳
##💊
##↪
##🔨
##♪
##←
##📨
##۲
##۵
##🔕
##🏅
##£
##⌛
##↙
##🔗
##ʼ
##√
##🐔
##🍴
##ß
##🌕
##🍑
##🎃
##🎅
##🛎
##ڥ
##ﮔ
##œ
##🔘
##п
##✧
##💷
##👛
##🏮
##♫
##♨
##◾
##🐟
##✉
##🤴
##त
##ि
##🔶
##❇
##♔
##ٽ
##📻
##✒
##ﮭ
##🕯
##👯
##ﺊ
##ﮟ
##➡
##đ
##■
##с
##🏥
##👡
##🕛
##♻
##🐪
##🏋
##🍅
##🌄
##🖓
##📧
##©
##۴
##🥶
##🌤
##━
##┻
##🐄
##🌇
##🆕
##🐼
##ツ
##🎋
##➿
##ㅤ
##ﺚ
##ᄐ
##ﷴ
##۳
##❶
##🚖
##⇦
##🖥
##⬆
##ۦ
##ᅣ
##ﭨ
##ﷻ
##♚
##ﮈ
##🧏
##ᄏ
##ﮨ
##ह
##┛
ال
##ها
##ال
##ات
##ين
##ان
##لي
##ار
لي
##ير
##اد
##نا
من
##لا
##اب
في
##اي
##تي
##اك
##ام
##اس
دي
##دي
##اش
##هم
##ون
##er
##ser
user
##اف
##لى
مع
ديال
##بي
##ري
كي
الم
على
##ول
##شي
اله
علي
##ية
##اح
##اه
##يت
كت
##ور
##ما
##ند
##رج
##وف
##اج
انا
ان
وال
هاد
##او
##يا
##اع
##رب
##يد
##لو
##تو
##ني
كان
حت
الح
##رو
بال
##اخ
##يني
##رة
##رف
##كن
##كم
الع
##اق
غير
##دو
شي
##مة
فال
عند
##لة
##اء
ما
لا
##شوف
الي
الب
حتى
ول
كن
اخ
##مو
هو
##كر
##ابا
##مع
##كون
كل
هي
##بة
##دا
او
##حال
راس
##سي
##وق
##هو
##زي
##تها
##كي
##خل
بع
وق
##نو
##مي
##جي
##دة
##ست
##لب
اي
الف
دابا
##در
##احد
بغ
بي
##رح
##ادي
##وج
##رك
ام
فيها
مش
وت
فيه
الس
وم
ولا
اش
مت
##لع
ليها
##rl
##اص
##وت
##قة
باش
تح
url
لب
##ينا
##كت
##قات
##را
##كل
بن
##ينة
##دات
بز
راه
وج
##طي
تب
اح
واحد
##قو
##بو
##اني
داك
##لات
##هي
##مر
واخ
تع
وح
نت
وي
##افي
ليه
##تك
##اها
شاف
الق
##لم
رج
##في
علا
الد
##غي
##حك
##اط
ماش
الج
الص
##بر
الخ
##وم
عن
واش
اس
##دير
##لام
وب
الش
##عة
ليك
عليك
##زيان
الت
عيني
عليها
##قي
##اين
ون
بزاف
لع
##قول
مزيان
لم
واخا
##اجة
بحال
اب
##عي
مح
##يرة
##لك
##وية
##طو
دار
ليا
عليه
ماشي
##ta
##وا
##as
مس
##بل
كيف
##قا
الو
##الي
غادي
يع
الك
كاي
كانت
وع
##دام
##مشي
وص
##ash
بلا
##هد
خرج
##tag
##اض
##ashtag
كات
##از
زو
##وس
مب
##فة
غي
##مد
تن
##لت
##خرج
شنو
##ضر
##من
مر
##وي
##اتو
ولكن
تي
##لق
حس
واله
##اري
مي
بص
نع
##فس
تق
مك
الا
##تس
علاش
هز
يدي
##عو
##وح
##ربي
##جب
تف
الن
##دها
لح
##رها
يا
hashtag
فين
دخل
##ارة
##خلي
##انا
داكشي
##دم
حيت
##وك
با
حاجة
لك
##حة
اه
##ولي
مات
سي
راسها
##وني
##حي
##سة
قال
##با
لق
تا
الط
بر
##ذا
وس
بعد
##لها
##ارك
##هاد
##ضحك
##تش
##اير
##ويا
شف
بين
ود
اختي
##نات
مغ
نو
نتي
##هار
كنت
هنا
##الة
والو
ري
عاد
##تح
وش
##بع
##مان
وهو
##نت
المغ
##اتها
مز
يح
بس
انت
فر
##لس
تس
##تر
عينيها
در
هادي
##ضي
خاص
شوية
مق
بغيت
##ناس
عم
وهي
##وز
##فر
##ايا
##ارف
اص
لكن
##ديو
##ود
وقف
مال
ربي
معاك
شع
الى
هادشي
حد
##امل
صافي
سم
اع
##طة
الغ
مرة
نس
عندي
ور
بق
طلع
بش
##وش
##نة
فوق
الز
بد
##مل
الر
##مال
له
يت
##بط
##بق
##يري
ملي
قدام
ات
معاه
نز
عليا
وخ
وك
ها
##رجع
حتا
عي
رجع
مو
##عد
عندو
لد
راسو
اك
نتا
##شة
فع
تص
##نان
حط
جي
واق
وف
##مات
ماع
##هر
##صة
كاين
ماك
كلشي
##بد
فاش
##مها
##سن
لو
##اتي
يس
مخ
هد
مج
بل
بلي
##امة
##ادة
قبل
##فو
ديك
##ثر
##شو
شافت
##ريق
حي
عرف
قلب
ولي
##سو
تخ
يار
مام
##عرف
##بغي
##اهم
زوينة
باس
اخر
تش
وه
تو
##بيب
مكن
##ورة
تم
شحال
ياك
شكون
اما
ديالو
وقال
##انت
مص
##الم
ياس
معاها
##خص
عندها
##كرا
اول
ماب
نهار
عاي
شوف
باق
##بها
نق
عندك
الناس
##واي
سمع
##وه
##زة
كون
##ولة
بح
##قها
##بح
##لف
##جة
##مت
##بان
##هوم
يش
كب
عارف
فق
##ضة
##مس
نفس
بج
ماي
##يل
يال
راك
حنا
##ضو
هذا
##انة
ناض
##نس
##رت
عط
##احة
##موع
خلي
وحدة
يديها
##هضر
تج
بقات
##اول
بيها
مشات
حدا
##رات
##باح
كيشوف
##رق
##اود
##رية
بت
الباب
تكون
اف
##وب
لف
كتشوف
غا
وانا
##ديك
نور
يكون
است
قل
##اعة
منو
يدو
فرح
راج
معايا
الاس
##صل
لخ
عق
الام
شكرا
منها
دير
فيك
غن
##حس
الان
المغرب
كيفاش
##طع
##زيد
كيت
خص
مزال
كامل
##طلع
##وها
مد
##يدة
قرب
محمد
##بك
بيه
كول
##ضرب
عينيه
وجها
##ريم
خويا
##بكي
زوين
##وسف
##بيل
يق
باب
##بت
ديما
نص
بنت
لعند
فيهم
نشوف
تشوف
##كس
بخ
##دمة
##رس
صغ
##رد
عل
##وايج
ته
يد
##وقت
##يتي
الاخ
##خلو
##باب
##اتش
غت
بصح
بان
##بيت
امين
ولد
غان
##سم
عليهم
##ماء
##بية
كر
ديالها
جات
مشا
فيا
##كا
لاب
بقا
##ديها
هاك
##عب
يوسف
مني
خير
##اية
##نز
وغ
ضحك
##رين
##تا
حم
نمشي
نج
##فون
الفي
لينا
##فها
يديه
##بيبة
عمر
ضرب
جو
تز
##هة
نح
##طر
##دين
##بال
##نين
فهاد
وكي
##تسامة
حل
هزات
##ليها
ديالي
##بس
راسك
عين
عليكم
##ديد
لها
جلس
##سين
##ارض
##رض
##شات
غاي
يف
ليهم
##شا
باقي
المس
اج
باغ
##فع
##ارت
##سان
##بات
قلت
##عم
شاء
غات
زين
اكر
##حت
##ضرة
##لاه
##مكن
باغي
ني
ديالك
ناس
دارت
##قد
اجي
مف
فو
##بين
مان
##ديه
كانو
بك
كاع
لاي
احسن
##رام
بوح
بدات
سلام
حال
خرجات
##يس
##قت
خل
##صر
##يتو
تبارك
##ليفون
##به
جا
مست
##حاب
##ياة
عف
##هاش
##يم
ندير
جال
##ابع
داير
##وص
لان
اكرام
جمي
عام
فحال
تغ
زع
##نى
##نية
##موت
##فظ
فراس
##ربية
##له
المش
الرج
وكت
بغيتي
شعرها
##لين
نش
##جر
##سات
خلا
وا
صد
##لان
الوقت
##مض
##قلب
##يرو
##لوس
##مين
##دية
جمال
##كو
##قولي
##طل
##جري
واع
دخلات
جاب
##مش
عص
رك
لقات
اخي
لدار
اليوم
##طق
##فت
فد
فمها
المو
دبا
##اتهم
##اتك
##زو
الشي
فيديو
##ارج
اهي
مه
منين
##نيا
تما
وخرج
خاي
##لية
##نتي
##بار
حشو
##فكر
مور
##لعب
يجي
##حر
ختي
##حل
##اكل
لج
داز
يارب
اصلا
##قل
##سر
##كة
جمع
قالت
تحت
براس
حيد
المع
##ادم
انه
راسي
##زاير
مشي
##وتي
مكاين
##اخل
##ناة
صوت
##لاح
##ربة
حشومة
##طيك
##انية
مكت
##امي
##ونس
الحمد
ين
كنتي
يه
##رى
حوايج
كم
##وات
اسي
##كمل
بدا
الث
زي
##ذي
##تيش
الري
صباح
##سمع
يخ
وز
مالك
##منى
بغات
بغا
تجي
##روك
الدر
جاي
##ابة
##نب
كولشي
##ونا
شد
##زال
بشوية
##صب
ياسين
##اون
##مام
راي
لغ
غاد
##اوي
##اسم
مرح
تال
منك
وصل
فخ
##رعة
تك
##بلة
بصوت
##يتش
فش
##ركة
وقالت
كتح
##مك
لباب
##يرا
##دخل
الهم
يدير
##صد
فهم
يعني
##قك
طي
##فض
فك
##ريقة
هدا
##عجب
##املة
يخلي
سع
##اوب
ماما
##ندي
ناضت
هاز
واقف
##وال
##طات
##دك
شاد
معرف
##صي
بط
جوج
سير
عفاك
##اربة
كبير
سك
وقع
تر
ياربي
##موبيل
##يتها
سلم
##ارح
وجهو
دوز
##قر
لام
##ريب
##ابي
##عل
الخير
مكان
الدار
##راحة
فن
تمشي
##هل
ليلى
رب
هيا
هبط
ياله
مث
علينا
زاد
##قدر
20
السي
نف
حسن
باله
##يدو
اغ
فل
وط
##اله
بعض
##حو
دور
مرحبا
جل
خال
##افيك
الفيديو
فب
دال
الدين
##هور
دو
اسد
##ترك
يلاه
##تى
هضر
كتر
وكل
حبيب
ورجع
##ليه
##ثة
سيف
مسك
به
##بقا
طال
فح
زعما
كا
توح
##واج
قر
البنت
##ارو
##خر
فالم
بيك
مكي
##لط
عايشة
هذ
##ينيها
المهم
##ou
الفر
صاح
الاح
##وة
مبروك
يشوف
مهم
بو
ديري
10
##ايل
راني
##غرب
كين
الحق
##اما
دخلو
وقفات
##تهم
نقول
ولاد
##ته
##يتك
اخرى
يرح
يج
ومن
معاهم
عندهم
##بقى
ريم
شخص
البنات
شدات
##هات
الحال
فج
اخويا
كلام
اد
اق
##زن
بنتي
هما
زينب
##ليك
العالم
تست
لاح
رو
لس
عش
الوال
بنادم
##ارفة
عزي
دموع
هوا
##ne
##قوة
را
تعرف
نجي
الدراري
##هاب
##زوج
ساك
تقول
##لاق
تاع
##ادر
عادي
ابنتي
##دوز
##رفة
##تل
لبي
عجب
خط
##فرج
ساعة
ماق
لايك
يدها
هك
ناع
مري
فط
فاي
##وتو
##زل
حرك
الاع
قنات
انش
هاذ
لاش
##عت
اكثر
##وقف
بلاص
جديد
##اهل
توحش
##راق
يحفظ
غدا
انها
صف
مول
##ضل
مريم
قلبها
كتبكي
رق
الور
##يط
##ونة
الجزاير
يمكن
سيري
##لاص
وسط
ماغ
يالاه
##اسة
##تيني
مابغ
##وقع
دوك
حداها
نزل
جب
خلات
قد
هادا
تاني
وجه
##قيقة
حلي
عد
طلق
دغ
##كش
طريق
لص
##ضرو
##ولو
##يش
ير
بجوج
##تيها
كيح
حطات
ند
طاح
##ضع
شفاي
وما
الاب
##افت
##كتب
##مار
##افة
لت
واي
صب
روح
##وفي
از
سو
رجعات
ماعرف
##قاش
##فات
كتع
عب
وقت
بابا
خدي
##ضوع
يونس
خدام
##ناء
شوفي
يوم
اري
تخرج
اشنو
حلات
السلام
##ظر
بار
حاج
مار
داي
نه
طوي
##تحت
لش
##قى
نط
راجل
##رجة
اوا
ماد
حنان
خارج
وان
شفت
##اسي
بعدا
فقط
##توما
##نق
فم
بدون
##لاد
##لاش
ناد
التي
قطع
##دار
ومع
قلبي
لاخ
الهضرة
اني
تاي
##طان
مرو
الضحك
فمو
فكر
عاف
عبد
بكل
ولات
درت
ولدي
ونا
عارفة
##زات
##اهو
كو
وخا
الاي
ار
##ليل
بف
قص
ياخ
##دور
الكل
تنهد
هاديك
هاكا
بم
بابتسامة
vi
شر
عماد
ناري
سال
مكاينش
هوما
البي
اسر
معند
يقول
كلها
كتس
##طف
صح
بالع
يست
ست
##تراك
##ايرة
كثر
عندنا
كاملين
##رتاح
##ولد
اكيد
##وجه
##غوت
حياة
##انو
رح
##عر
##نك
ايوا
##غر
طلعات
##روج
دغيا
##نع
لور
نض
سيد
##ليا
##كري
##خة
بها
تفكر
سخ
ودخل
لبيت
بهاد
##اصل
يص
##يلي
الاش
##ظة
##hashtag
##جع
خرجو
##دت
قولي
فهد
المر
فص
ماف
المح
كبيرة
##ينيه
كلا
##كره
الذ
##نها
##نيش
اسماء
##الو
ورا
##دوي
جاو
مبغ
##قاي
اذا
##الية
##سل
انشاء
الحاجة
بقوة
##راة
الارض
##اهي
##يف
##كان
ليكم
درتي
حسات
ياسر
باي
رجليها
حداه
##طور
حبيبتي
تبع
يعطيك
##رحة
باغا
##خير
نورسين
تلف
##حات
فت
نيت
##ضية
##طار
زيد
سب
##الك
لاس
صغيرة
##افو
##هوة
انك
النهار
##ar
##بتي
##مانة
سكت
##تاج
##نيها
تحب
##ديت
كاس
عصام
##معو
##بوس
##غل
ارج
جميع
بيا
سارة
الحب
وهيا
##ديدة
جود
خاط
القر
برا
هم
##دوش
الاو
مرت
##شها
##ورو
كال
طل
فس
زوج
جر
الض
##تسنا
واقفة
وتع
##هت
##وزينة
نخ
جاد
عينو
بعيد
يو
وها
نعرف
كيضحك
لما
حق
سر
الاول
##قدرش
##تيه
##حش
خفي
منهم
##شان
##عات
لامار
بسرعة
بالم
تد
لتحت
##بغيك
##ينو
##شر
##جاب
قدامو
طلب
##لاك
##ظيم
##تة
##ايلة
##de
فشي
كتش
##صف
عاود
كيع
امي
##ايد
كمل
واح
البر
##كيل
##an
احم
تابع
جن
مط
##صو
لعندو
فاق
دخلت
كلمة
جالسة
ومشات
##شام
المغاربة
##اوية
المن
تنه
ايد
عافاك
##هرة
التع
حش
مراد
##me
##تق
كدير
##اضي
خاصك
##دق
##ناش
رجل
صغير
نمشيو
تيليفون
حر
مشيت
##درها
اويلي
قناة
ليوم
وصافي
##ادل
وليد
هدر
##لاي
##فهم
##لبس
وهوا
هداك
ابتس
المرة
الجو
باه
شه
بقاو
##انها
لن
تخل
مازال
ضح
تزوج
الحاج
عنقها
جلسات
دموعها
يخرج
##اديش
هكا
##سول
لهاد
##غير
##عين
##اة
##اشي
ضرو
ماعند
قلتي
##اجل
شو
جبد
صعي
معانا
وفاء
كاملة
الكر
##فيق
##لامة
##افية
##عس
راح
##ابل
نتوما
مشكل
##الات
ونتي
يب
##es
لط
##فل
##تار
سمح
حاط
كث
انتي
##ضب
ايه
##شية
هكاك
##ساب
مل
والي
وصلات
اوس
##لاصة
سنين
##الون
كيش
حب
##نزر
خدم
وصلو
##طا
##طيح
فاط
##يرات
يط
راها
جيت
##al
جرها
نوارة
عرفتي
المق
التو
نيشان
خديجة
لبس
##ماق
##فيان
##يران
اولدي
##قين
لعندها
قناتي
انو
الرو
هادو
##ميع
حيث
##نه
##راس
وكن
##منا
##بقاو
لاك
الدنيا
لاع
باك
##عيش
المج
الحل
برو
باينة
##مق
##توى
قدامها
يمشي
##ساس
##هز
غز
تعلي
##اجي
بنات
متو
سلمى
كار
##كات
ساع
واقع
كيق
وحتى
##بحان
رد
##كلم
المخ
ادم
##نوض
##جل
ريح
بيهم
كمال
واس
اوف
##ندير
##دوء
ابا
بشي
##اجر
حساب
جالس
عو
الرجال
##in
فات
##غم
قت
الصباح
##بيبي
هشام
##يه
عض
كنا
##وصا
تات
كتق
هدشي
جه
##جيب
##وفيق
##حن
##ادو
تحية
ايلا
دارو
##شف
الموت
ماح
فتح
##عيط
النا
نكون
نظ
زوينه
واخة
بخير
جدا
ضروري
##مكنش
##ينش
##زق
دايرة
كلو
تفو
العظيم
##هام
##اقي
بانت
ماخ
##فاش
يك
##نقها
صدي
فوج
حمر
ناديا
المد
يرحم
فحي
عزيز
يشافيك
بالز
ريماس
اكبر
الطريق
داخل
##صور
بالج
##طين
##ارات
صحاب
شفايفها
باين
معا
نخلي
يغ
صراحة
الشخص
##اطع
لقيت
الوح
##روال
باست
##ha
##بير
قب
داخ
##ريس
الخدمة
وردة
وانت
نعس
نوض
كاتشوف
هار
نخرج
سبحان
كح
##صح
خرجت
صحي
حلو
ديالهم
فالح
السيد
بارك
ابت
نوضي
شهر
جبل
##وان
شغ
##ثى
منا
##سيم
##اتنا
ويع
##ساء
كتخ
لفوق
طو
##سية
##صا
##الا
امير
لابسة
ابتسامة
قالي
تل
قول
بينما
وراه
##ذن
تلا
ايام
##مسح
عا
لبنات
العام
ماشاء
والح
عمري
بقيت
العي
مليون
حياتي
ارس
البيت
جس
كريم
##لامح
غمض
مشاو
##يتة
الحالة
المت
تنهدات
تاك
سفيان
##هب
فري
##صاب
##برة
حبيبة
كير
##تني
كاينة
##روف
باسها
##مح
مسكين
تبكي
الساعة
تلق
دازت
تحل
##طب
##وتها
##سيف
البارح
قري
قاد
فعلا
##قف
كذ
##سك
مها
ومشا
قدر
الدو
الصحة
بلع
طول
##وط
قربات
القلب
##سى
##❤❤
فاطمة
احبيبة
فض
عاو
##ثمان
##حيل
##فك
##ناه
مغربي
بيت
تقدر
نها
بالي
##قولو
كلهم
خلاها
##نسبة
يحفظك
##دل
عايش
رجال
واعر
##ناي
##ضور
الملك
والع
يفرح
كيدير
وبدات
جيتي
##خب
ماس
شك
مصدو
سلي
الحياة
تسمع
عاق
توبة
##قيتي
فنفس
المغربي
دفع
##تم
فواد
##وار
##انيا
وناض
خليني
##خي
حرام
بالح
بلاد
##ركات
رقية
سول
##تاح
لفي
##deo
قلبو
##كية
راف
video
##ياء
الرح
وفي
الصح
فالس
جميلة
اكت
نشوفو
##مرة
##هرها
حليمة
فار
##لمين
حواج
فالع
فعينيها
كيس
عنقات
##on
شويا
قوة
لشي
##كار
يحي
ترجع
##زها
ايمن
شادة
كتجري
شفتي
كنشوف
كايشوف
فبلاص
ماريا
نطق
##تنا
العم
الشر
مخلي
صدرو
نزار
##اصر
عمرو
لقا
لابس
##ترم
##قوب
مهدي
وطلع
الاف
درهم
##طيه
##طيها
##جد
##قص
ماج
##بعد
##امن
بحالك
##الح
##فلة
##زين
كتب
النو
الطبيب
##ءه
بالت
##اسمات
ناعسة
اوكي
##رجعو
لباس
لول
كري
##معة
ارسلان
بلاصة
خصوصا
مسكينة
##داو
قي
##ياتي
اوك
##صير
##ربو
ليلة
بالو
غال
بداو
لبسات
معرفتش
شوي
##صبية
##بيع
##فين
نعمة
##جبد
ولو
بالنسبة
ضار
##ايب
##ابط
احمد
##اسين
##داد
انس
ياسمين
الموضوع
ماكان
##قش
نزلات
عمي
دايما
الاج
كيبان
دوش
كد
الفلوس
حول
##مضان
الما
##لاتي
##زم
##بيلة
غدي
كبر
شافها
غوت
##تكم
بوس
بقى
شيء
وعلى
بالك
الاق
ديالنا
سعد
مروى
وهاد
هارون
سمعات
خاصني
##منة
##ايش
الدم
عثمان
لواحد
وتو
مدة
لكل
وتح
كنح
ويلي
افضل
تان
ولاكن
قريب
كتحس
علم
جام
##بقاش
##نفس
لداخل
201
الانثى
##ميل
بالف
واج
والم
براسها
طويلة
##زان
##طال
شدها
كيخ
مافي
جنب
يلا
هذه
##am
##ناك
##قبل
دراري
##ضا
هاني
##جمع
##هش
##نوات
##يات
قيس
##ريك
##طح
شيماء
##ينها
لمو
##طلب
##نديش
##اكش
اليل
اسم
دم
غالي
بهدوء
##قيق
##هما
وخرجات
عقلها
طبيب
##شق
##ايح
قف
اصاح
يقدر
لالة
العين
هاي
سنة
مغي
##قايق
القناة
وكان
زهرة
ناز
##فيك
المست
جديدة
##ليش
##دوك
اولا
الشعب
##ليب
##اهرة
##اوش
##انين
مرض
شافتو
##ضري
##بدل
##🇲🇦
##ti
##اقة
##لوب
حوايجها
يسهل
##لوا
خو
يخليك
جز
بجهد
##اكسي
##لتي
يدخل
ليالي
هدي
كايت
العايلة
خي
ايهاب
une
##اطر
نب
فرحانة
خالتي
عز
حالة
يعقوب
يام
زيدي
##ارد
##اكشي
خار
ساه
##ندا
تقولي
دنيا
بليز
##وجد
##غط
طر
كضحك
فواحد
##بوك
##فا
فلوس
##همش
اسراء
فالارض
مغربية
هادوك
##اتني
##ونو
وير
يعت
ai
حركات
عرفت
برج
الول
##ريد
##سا
##برو
##نيه
هل
لقاها
تيلي
رجعت
ونتا
##هرو
يتح
ومت
فالك
##طوات
##ذب
##كتور
طاحت
##ارا
##نف
مكل
البلاد
##لبها
يعرف
##اقع
مض
طبع
راكي
جواد
##لاء
بوحدها
##وتر
##ادير
##يتر
سمية
الالة
##عاود
##لاة
##is
بعصبية
حاول
بغينا
دف
##اكة
وض
##عرها
ركب
هن
##اهر
فالص
##اعو
حاملة
المشكل
زوينين
ويح
المص
سيمانة
رويا
##ده
بزوج
مزوج
ابوني
الحم
صدرها
اميرة
ضحكات
حن
اسيل
##اكم
ايدو
##افق
##قاتش
فيديها
##فار
خاصو
##ورط
بلاتي
متاك
##فور
##تين
يحيى
ارجوك
باقا
رعد
السر
تاج
سنان
الضو
فالق
زير
فالط
النع
##اخد
فان
##اكي
طب
خارجة
##ابلة
معك
تقلب
اين
اودي
مستحيل
حجب
##ديا
وجلس
براسو
سمعت
تهد
##ثير
لكم
الفوق
تخلي
##عا
خدات
طريقة
بيد
بنفس
اسيدي
الاغ
يوف
وحط
صعيب
صبر
##اعها
حين
##ضاء
جيه
سد
##شاو
##صرف
غادة
كتف
##زع
##ابر
عمرك
##en
##كين
تبادل
غادين
خايفة
##امر
##زا
نديرو
لقاتو
##لاب
مريض
زواج
متبع
كما
مخرج
بلاما
##افر
اشترك
وليت
مقدر
المي
لسان
هبطات
دك
##حم
جهة
واو
المرض
بحالي
مبت
صحيح
جبدات
##مج
هاجر
لاخر
تحرك
مرات
فدار
##جاه
يرجع
عاج
##سيو
رايع
لمر
انسان
##ليلة
جاوب
كيضرب
غيثة
العب
##مشيو
سمحي
##اعد
الطو
مرا
واك
سيدي
##اسها
كيجري
عيت
القضية
رمضان
برافو
نرجع
مغاديش
خدا
لبارح
فينا
مجموع
##la
##خاف
##اغ
هاداك
لعب
تحياتي
شكل
عزيزة
##لح
##مية
##هدر
فراسها
جد
التح
ويام
لهنا
حاس
عيط
##بغ
المغربية
الرجل
اخت
الهد
##اهيم
لنا
قاطع
##لقا
##رع
وبدا
حبيبي
تصرف
وعلاش
ناصر
سمر
كيص
طويل
##بري
توصل
قاص
##قب
خوك
روعة
جاية
دخلي
##موسية
عادل
زياد
وشكرا
الرب
##غراب
ليل
نضال
بالخ
##ينيش
سكينة
عري
دع
##فاي
بحالا
ضد
كرشها
##طيب
بسباب
##وليس
بعدما
بوحدي
##لوك
خفيفة
متع
##اهد
لحمام
دايرين
ويت
هدى
##الحة
مالي
##نج
تفرج
الظ
وخل
موج
##دع
##هضرو
##كرة
نقدر
##نسا
##ولها
كتعرف
عمرها
##فق
مباش
واص
##ولك
مكانش
وشاف
جلال
##درو
اصاحبي
ولدك
قدامي
##دود
تصدم
انف
ماكاين
باها
صور
انيس
##ضيع
عيب
سعيد
##ra
تكوني
##قيت
كنبغيك
وبقات
##ىء
سوق
توحشتك
##نش
مسح
موس
مخل
##ابو
بطريقة
بيناتهم
##اييل
##هيلة
لبيتها
يكمل
الخط
وين
##ملة
فديك
##الت
صفاء
طرف
ناق
الحر
نسرين
##افع
غم
##انون
مشترك
قالك
السب
فاتي
فالت
اشمن
لهم
المراة
##دان
شري
هانا
تط
##جو
##تيل
ودي
كيقول
فكرة
راجلك
معصب
فكل
بزربة
الايام
بالص
بغاو
ناعس
فالب
نوح
##درسة
فراسك
##اطة
تحس
تدخل
رجاء
زادت
##ازي
فالدار
##برد
بالغ
##زقك
##لبو
عيشة
##ماع
عاش
هزها
محتاج
حياتك
النفس
حسيت
علاقة
معاكم
##اتم
كيما
لراس
##كرو
الاست
الذي
ايدها
##ابق
والس
خاصة
##توا
##جين
سلامتك
الطبلة
اتمنى
فاس
الانسان
فداك
الراس
##سوة
وهز
تاو
صاحب
فالد
تهضر
شعرو
##بطو
لقاو
بيديه
##رجم
##حبة
البال
ونت
##وفيا
بالضحك
سند
الاشتراك
الصغ
##ضى
##يلة
التعلي
ملك
aime
نعاس
##حاول
الزواج
ورجعات
كيتس
والت
##اركة
##ضات
الاد
##اخر
لاباس
عرو
لكوزينة
##ارق
الراجل
الكلام
##ريبا
وسلم
##بوع
متي
##حب
رجليه
تيت
حاسة
وجهك
الريكس
##ديش
هاكاك
##شم
##قيتش
رس
العراق
##or
حاض
ملامح
##ونها
##توش
##سط
##ارب
طلعت
##دب
##ولية
لمن
مين
فمك
ضي
##مهور
غلط
##داع
براء
مفهم
ندى
سروال
##شوفو
كيفما
الكو
المسلمين
ابتسام
وهبط
فالمغرب
هازة
##مه
الماس
جمعات
صورة
ميت
##يرت
تبسم
منت
ماعرفتش
##لعبو
##التي
##ذة
ولاو
لفر
العالمين
نك
الطريقة
كتقول
كاينين
عيد
##ربات
دون
بغيتك
جاك
شافو
ودابا
دقايق
##جاج
مثل
الغني
كيتسنا
ابر
خدمة
الولد
شمس
وله
نبيل
بنتك
##وسط
وات
ايات
واب
##ذر
محت
##كونو
تاب
مخلو
##اكلة
قوية
نتمنى
بتاسم
رحمة
جبه
##افها
##لوش
قتل
حسب
تبس
دري
فاقت
##رش
الاولى
عالم
بعضي
خافت
ليس
حمد
شدو
لكي
##اور
##دمو
##طير
بغضب
##ميز
رتاح
ونعم
ملاك
##ينك
الاص
##ديم
ناي
##ضح
احد
بالس
وليتي
##صال
لبنت
##فرح
##لال
حو
كولو
##لوى
##te
ثاني
##افيش
تفهم
تليفون
تعلم
وصلت
خلينا
خصرها
معارف
سام
سعاد
صوفيا
وبغ
عايل
جرب
بري
##ماعي
والج
##قيس
يعتقد
##اجد
وليدات
يبان
##ازا
خاصها
##اتكم
كتسمع
تبغي
دق
##وع
تهز
مباشرة
منه
ترك
##حرك
وراها
لوج
الماتش
كنعرف
ايديه
تقريبا
العرس
كتن
لمس
بلاصتها
اليلة
بيديها
نغ
وام
##مون
كيجي
##بعو
هاه
ريقها
تجمع
خرا
سكتي
بسب
عندكم
لبع
الماء
يزيد
لحال
خفيف
نوع
##ديرو
طالع
ياكما
خس
الدي
وتعجب
وزاد
ريا
ديمنة
كحل
ضحكت
كند
ميمكنش
الخل
مشى
الحيط
برك
ياخد
##ريبة
##ميس
##ربح
رغم
##اشة
الحقيقة
قالو
لمع
موراها
##همس
عهد
##قع
مالكي
النعاس
كيهضر
##لوم
بالش
تبقى
اتاي
مريضة
بكري
##اريخ
عايلة
كتفكر
حبس
الزين
##الها
بمع
كلي
مافهم
ديرو
اميمة
بالزربة
##وتيوب
دوي
##بدا
الغرفة
##ماغ
##ظم
نهضر
بدي
وقفت
##بز
عدنان
##ريا
كتهضر
نجمة
##جبو
##لبي
فيكم
تفك
ماتش
كتبان
غس
##وهرة
##عجبني
بث
يحفض
تشوفي
الطي
بالض
متابع
الحي
بالوسيم
##بيطار
يله
بنتها
كتقلب
البار
##حق
مزيانة
يتع
اعت
اقبال
بالجهد
##هوش
الوط
##اعدة
الكرسي
باستغراب
##نقة
موت
كلامك
جيهت
خطو
ضو
علاء
لدرجة
##عادة
##ad
يشفيك
الوكيل
ابو
##لمي
##ارع
مدام
##بيض
##ارية
ويد
ودار
فبال
##بعها
##بني
يكن
كتبغي
مدير
##بارك
نعم
بوحدو
لجي
استمر
##نامج
ارو
توقف
واض
حيدات
وبقا
##دامة
امام
##يك
المنت
##قاد
صاف
صغار
الجديد
##ناها
لاعب
الواليدة
زمان
##ناتي
##زيف
كيبغي
ولدها
ختك
##طيني
##لومات
نطقات
خوتي
##ch
##ريف
##غة
الكاس
كس
سن
فتي
خاصنا
الجنة
عنقو
ترتاح
شفتو
كملات
##وهم
جايا
##ضن
نسي
لانه
##خلص
تحط
فرحان
##جا
##ركز
لون
صوتو
بالخير
گاع
اماما
وغير
عمران
وشنو
##هق
نزلو
غزالة
انور
دورات
##ترام
عطيني
سدات
##سيقى
##رجس
##نزل
##ريح
##ينيك
بلاصتو
##اعر
##الى
حطو
الضحكة
##غب
بسي
وشافت
شوفو
##زاء
بالد
تكل
بيخير
##نون
وحنا
##ليون
سوال
بتاسمات
فالش
حطها
##🇩🇿
عنيها
قمر
بوك
##وين
مكم
يعطي
##طفى
صوتها
موراه
وسندا
يجيب
التق
جهاد
البرد
##اضية
خلاتو
خايبة
لوال
ثم
##ورت
زهور
الصراحة
براسي
لاسف
رجعو
الاط
عت
رشي
احبك
سماح
ودا
##متي
كتحاول
ماقدر
تدير
راجلها
نست
##اصة
طلعو
همس
فالخ
عينيك
كوتر
##سبوك
متخ
##طيل
ﺍﻟ
مجموعين
##جه
الامر
كنبغي
نصي
القران
لاكن
##مري
قط
##روب
##راض
##نكها
وناضت
دين
كيقلب
دعم
##نسية
تولي
##معين
حتي
الكت
الواليد
كنحس
صاك
##يلا
فاروق
واه
##شى
ابراهيم
##ma
يفرحك
30
مصدومة
##ثار
كلنا
ايمان
وشي
##زت
ذلك
قلبك
يوفقك
##هيب
##نيتي
##لاتو
##وى
دوا
خليك
سلط
لوطو
مزير
صلاح
الولي
هان
ريحة
##ادا
تاهو
##سيل
فالج
مدات
الفو
##حمل
##re
وحد
نتع
الار
نسيت
##زير
معي
خدامة
كفاش
##هود
مكره
شفتك
نموت
##ورك
##خو
البحر
##لقاو
وعد
##يبة
لمغرب
##خات
##ربيق
العش
لحد
السيدة
##ومة
الاخر
##زيز
تصو
عاون
نرجس
##راي
يضرب
احلام
ونز
القو
بسمة
كيحس
رزان
العد
اسلام
##باد
تلفت
راجلي
##اذ
##قرب
فرج
ربع
سميتها
بعدات
عيسى
الات
عامر
فوجها
ريان
الصمت
الثاني
##لقى
بيض
زاين
##قوليك
معامن
تنوض
##موعة
خلق
فلو
##طها
خولة
اشراق
ارح
##ورات
ندخل
اشرف
غادية
الاء
الحوايج
مون
تيش
##نوان
كنزة
شفتها
تماك
بحر
ايديها
##ذكر
دخ
راهم
لات
نشوفك
فرصة
سه
##لمو
حدايا
##اهش
نعي
الصالحة
حالتها
##ريمان
الحظة
##مشى
##ريه
وربي
##لاها
##ثل
الجي
حوايجو
نجيب
الال
باع
اشتراك
حاجبو
##روح
##روا
##هيه
##هان
طبعا
اريج
##ولين
تبان
تبدل
النوع
كاد
ملا
اغنية
##فاء
الكون
والش
##عها
ضحكة
يطلع
##افيها
كيغ
عمرني
بات
##سنا
##لوح
خلع
##قاو
##le
عال
ساكتة
##ظن
معنديش
نزلت
جنا
فهمت
صدق
مالها
##لوة
البط
كوثر
اصبح
خونا
تعليق
ودخلات
##لاو
##صار
بسم
مكلخ
كيد
عينها
اكتر
كيتح
هاذي
بالعكس
بنظ
فنان
جيد
شتي
بواحد
لوح
##سب
##اعي
وكاي
مشيتي
يرضي
سميتو
نار
القهوة
وذ
متش
فراسو
ندم
جميل
فيدو
مثلا
شعب
الامور
##خرا
##كونش
شفايفو
هضرة
##قيل
الحمام
منصف
فيديه
شرب
##ره
قالها
##اونك
هاهو
##اينة
خليها
باغين
##وض
صبح
##غيب
لارض
عقل
##صلو
وعط
خبار
خت
طوموبيل
والد
##دوا
##فز
سميرة
##بداو
##هبط
ماو
ماماك
##لقة
مابا
##رم
السم
تبقا
اهم
رم
ماكي
بصدمة
الوالدين
لحظة
عالي
احنا
ونع
##طرة
اخيرا
##ازة
بديت
##هج
الواحد
##يها
وتش
ثلا
ومات
صديق
شرف
عطاها
50
هبة
##انات
تزيد
معروف
نسمع
وعي
فلب
صر
##جن
جالسين
نفسها
الوضع
الطب
مابغيتش
اذن
لمح
##ضحكو
فرنسا
جينا
جان
الانت
##قطع
كيشوفو
وجهي
الاسلام
##قتل
تبسمات
نيتك
بما
طاكسي
لاص
ضارت
بدر
فور
##ربق
##عه
فجي
كوني
طلقات
كنقول
كولي
لفلوس
فلا
الياس
الوحيد
ميس
منقدرش
دقيقة
ناح
انهم
حاضي
تاكل
الكبير
بتو
ذي
الاقل
مغت
جهينة
##بغيش
بتس
رافاييل
##كوم
وقفو
لدوش
##لاط
وهوما
كيحاول
فير
يديرو
بوسة
##اوين
تاس
يوصل
##جرة
بخطوات
غزلان
دعي
بشر
غيث
تستاهل
##اريو
يهديك
هرب
اها
مرب
تلعب
سندس
##جاو
##فاهم
فشكل
##قيقي
هذاك
احساس
الحرام
##ياها
مقابل
تقو
لين
حز
وعند
مدر
##غفر
صاحبي
مايمكنش
الدولة
##اكن
واعرة
غادا
ويش
بخوف
الصورة
حاب
تقدم
كنتمنى
نيار
كدور
##ءهءه
تنت
##لمك
بلاش
قليل
يديك
الكي
العربي
فبلاصتها
فالباب
ضربات
رمي
هزت
مروان
الوداد
ساكت
معها
التر
مصطفى
قطعات
سكتات
صيف
يهدي
جري
عارفين
كتغوت
تبد
دعو
خارجين
12
محل
via
العرب
سهام
##نيك
كام
وخلي
الهدرة
صخر
شفاء
اولي
جزاير
طوب
بضحك
بوحدك
##بيدة
رايعة
##ارس
وياك
خايف
##دون
مخنزر
كتغ
العرو
تكلم
اية
يبارك
صعيبة
فرحت
كحلة
وهما
الشيطان
حجبانو
سمي
عقد
##الب
ليث
ربح
الدرجة
بغيتو
الاخير
الصوت
الصبر
ودارت
de
باح
##حاجة
فرق
فعينيه
غمضات
حك
كلامو
لر
##عرفش
مجرد
خوت
داخلة
##عرفو
##قرا
احب
طاهرة
##زار
تمن
اذ
كيلعب
##ادية
##اغي
##هرس
بينا
جهد
لوقت
بديك
##خلع
##وليا
وصدي
طيح
حسام
وعينيها
حاطة
##هاها
ترج
والب
تعرفي
عوين
عنقاتو
برود
يهضر
##ناق
وغادي
دياب
##عود
بشكل
بعينيها
فينما
وكات
يبقى
##نجة
كيطلع
حياتها
دكشي
عبير
وبين
المكان
بعينيه
لازم
امل
سنوات
يكونو
جنبها
قبال
سنانو
البو
الكلمة
##كلة
اختك
##اشر
لطي
والا
تكمل
##زاف
طبي
كتلعب
حتال
##جم
نبقا
قناتك
تلاح
##جاوب
تري
عرس
##صبة
بجدية
عنداك
اخالتي
مهند
##li
موضوع
فها
بصحتك
حنين
القصر
بارد
صبري
زايد
##جاد
نريمان
15
##ثي
البوليس
شاب
بهاء
بيناتنا
كتكون
لعبة
فهمتي
##ظهر
كتص
السو
سناء
جيب
خنز
كور
هذي
جع
قبلة
##يدير
والف
مسلم
واقفين
بمعنى
حواجبو
توج
##فال
قصة
##طوموبيل
##واء
##طوي
تقاد
جنة
وتي
ورج
لناس
خش
اليد
##عاد
##طرو
##طية
##حين
ماعارف
بحالو
زد
تويتر
حلقة
لكت
##ذاب
خلاص
يسمع
فلي
##يرتان
كتجي
ومس
السيارة
جلست
##لامي
لاف
##ولان
الصف
جيهة
قادر
نتزوج
مليكة
مسحات
اريد
يم
الفت
الشوف
تيق
بقيتي
الدموع
##دري
تجيب
لمك
بام
العيد
واصل
سكر
مدينة
##خت
الوق
جلسو
##دهم
الفطور
دابة
بض
لغرفة
ولدو
امجد
المف
##خاص
يامنة
ويس
##يناش
فحياتي
ايرتان
تلاق
##وتوب
##جامة
الجميع
لالا
طف
اط
الكريم
جوهرة
الاخرى
##جردة
اكون
بعيدة
غر
ورح
كتافها
رفع
بلال
فيلم
مابقاش
طري
تاخ
##اولي
li
##باء
نعاود
المه
تنعس
##ri
بلادي
وهزات
لكر
##فيها
باغة
تعاود
##قية
متح
##قوا
##url
بون
الون
##خرجو
خليه
يستر
##ماعيل
هانية
خصك
ضهرها
##جات
بيدو
تانا
زكري
غزال
شاع
##قصة
وبال
خنزر
نخليك
بانو
طبلة
الشع
حبي
ماغاديش
فعنقها
الناموسية
تغوت
جابر
##تهاش
حسبي
القب
اعلم
قبيلة
غنمشي
بحالها
جابت
لی
##🇲🇦🇲🇦
وتن
خوها
##خدم
##قط
حاد
المى
##اسية
##توب
نفسي
التلف
##نيم
##حتاج
تكم
علاه
غيكون
غدير
وعاد
يفك
##كومة
فلح
دقة
##ليت
هند
##يرها
عطاه
الثانية
مالو
غتكون
القي
المنتخب
الحس
##قاتو
حمزة
##احب
نوال
طالعة
عايشين
الحبيبة
كذلك
##اته
فلم
بالتوفيق
كيج
رجلي
ارجو
##لقها
وري
تالاسين
##درات
##ورها
كندير
كيبوس
الفرحة
##فيديو
والى
امينة
اجمل
بالاي
العق
كتك
ابن
تعجب
بدل
واما
حينت
مشاء
فود
جرات
لوي
##تمع
الاك
جيم
وصلنا
##وصل
ضر
بنبرة
##بيرة
نحن
ختها
امر
قو
فاهم
ضعي
المسو
وزيد
##شفى
يدوز
##لوها
ساجد
يحب
يرزقك
الماكلة
الشعر
زعمة
بسلامة
##موا
##شك
الحبس
##تماع
##اليط
##افات
نعسات
##نقو
تصاور
ترد
منصور
دارها
طيب
لوك
كيدوز
عيات
##el
كيكون
كلامها
بطي
##ايق
معجب
تعيش
##ed
##ارتو
الموس
شبع
كتفو
##اقب
##ايف
ماكن
##متك
علی
##قال
لخدمة
فعل
يحترم
تشوفو
مطلع
##20
هناء
##ابات
##at
خف
حواجبها
الاغنية
رقم
وقرب
الخوف
مبقاش
الزوج
##ينات
##ولات
راجع
غبر
لهلا
##مرو
ناقص
عكس
العقل
خبر
مصر
##حط
مخت
سعيدة
جاين
##مى
غايكون
البلاصة
شباب
##داك
وكيانها
صداع
##زية
##بوا
عبر
بسخ
هزو
خايب
كيسمع
##خف
عطي
ad
##اسمة
سهيلة
هيرو
##بيه
خوه
نعام
سمعتي
لبلاد
عاط
نكمل
اخو
عقلك
##طقة
##هرب
##اكا
لهيه
##اسو
الرحمان
نمر
وجدان
شرح
وعينيه
قوي
راسهم
الكلب
النظ
كلمات
بصاح
##ین
غاتكون
##زالة
خالد
بنص
العادة
وفين
##مرها
الشمس
الطبيبة
حياتو
##res
الشركة
##بيبتي
##وقة
مبغيتش
عرفات
##ابت
السرير
رون
فهادشي
وتخ
وياه
سحر
براكة
اماني
##قم
تحر
##انتا
غريب
كيدور
la
##كمي
بشوي
##اودي
تعصب
ناش
شعر
لموت
الخدامة
معرفت
تعط
ضع
##ريت
اسماعيل
الفراش
عمار
##الق
بالضبط
##وهة
تضحك
الحلقة
##واب
العمر
العافية
##لمس
قات
عجبني
##اودو
بقاي
بحب
والص
##ينين
نجم
متاكدة
دازو
كيست
مزيانين
تجري
##ريكا
اوه
متب
ابتاسم
كتاب
خدها
ركابي
##ابيض
##بن
ورك
لخير
##غو
فطريق
مراتي
سج
طاي
ركبات
برهوش
رشيد
يلعب
تخربيق
خرجي
##لوج
العلا
اجل
اياد
كيك
الها
يرزق
##ارها
##تمام
حف
##روع
نخرجو
وكلشي
الراي
##نوب
تعي
##اتوش
شركة
مصدوم
تكات
ديريكت
بكيت
عامرة
لقاتها
##نط
##اخير
##روس
سيدنا
هانتي
هاب
نوصير
خطير
يسر
##ثم
الاخيرة
##ديمة
عنق
وكم
العربية
##مور
##اسر
قهوة
##اضة
النج
##مسة
##فى
ديالكم
كيفكر
##جيو
اليوتيوب
##ريش
يرحمها
لبيتو
مراتو
غوتات
عمو
لقدام
احلى
اقسم
##زر
مجيد
الالم
##ناو
تفكرات
##داتها
نفهم
ذياب
طبيبة
##لهم
تبقاي
لمغ
زفر
حداهم
زمر
##ing
فالغ
الاز
مكنتش
يوقف
كيط
##بيا
التف
خيرا
قاليا
جاني
منكم
الخي
رسول
شرو
##اموس
رياض
مسو
فالف
لمهم
يحط
عوج
سوس
نرجعو
خوف
تضرب
##ندم
العلم
ختو
بنتو
تعليقي
صهيب
مشينا
نزيد
##سوق
##اكد
##اوة
تنفس
ميار
لاو
كيتع
الكم
كره
التيليفون
فی
طموبيل
ذكر
##وفر
الواقع
كملو
##عطي
##لابة
فبي
درجة
درب
فيدها
##رفي
مراكش
المستوى
كوم
جولان
صلى
##ايي
البل
فمي
باز
جبت
ودير
##اكلو
##عوبة
خلاتها
اولاد
باباك
حمرين
##هدرو
##لتش
##ايدة
وتشوف
وصديقا
تقطع
غيت
لعي
##صدرو
##ونات
طلعي
بول
##طورة
##il
##الف
مفر
سبع
لذ
الاخت
المكتب
##لعة
##وايجي
تنف
##وما
تبدا
##ورين
يرحمو
وشد
ويعافيك
خطوة
الدري
العاب
امجاد
سق
معت
##بقايش
التس
اعرف
نازل
سبق
سالات
ديني
خد
امتى
حلم
##ونية
##باك
بحزن
تعطل
افرا
ايثار
مغيث
رميساء
المك
تعالى
وشكون
طرا
حص
صحة
متكي
زكرياء
علات
ادير
تنا
لمش
تنس
جوزيف
تاف
بالن
وتم
طايح
##هري
وديك
كترعد
##ادين
دولة
الكوزينة
بني
##حها
اتح
والخ
الفا
وبع
ونزل
النص
وضرب
عادية
راضية
ناوي
تماما
قريبة
##جلي
نتفرج
نسا
ينت
ميساج
##شيت
بهمس
كرسي
##اليا
فاب
ونطق
ركبو
صونا
الفكرة
صقر
##عني
وتس
باقين
معندي
جابو
محتاجة
لفيلا
##ملي
نفسو
سيارة
حداك
سلوى
بالصحة
مابقيتش
شت
تشد
شهاب
##خلعة
مشكيل
فه
القحبة
بالايجاب
مرتو
شدي
هنادي
ضاح
##راج
##ردة
تنزل
##رار
الشك
سالا
جاتها
ولبس
وحيد
متاكد
##♥♥
العلي
##دوزو
##خليك
العملية
خدو
##مارا
##كها
نادية
لمي
السوال
الابتسامة
المدينة
عنقاتها
##لمة
لبسي
المرات
خاطرك
داب
وتق
قراي
مجد
امو
الشباب
##طاء
##وري
حنكها
غيتة
ساهية
خاوية
هات
##افظ
مشغ
##لوق
الرد
40
سباب
السلامة
بعضياتهم
غريبة
ماكاي
##it
##ميها
##افيه
اليه
امنية
مغن
هديك
ماعندي
سلمات
كنسمع
ماكات
مابغاش
قاليك
المل
سيلين
مرتاح
فحالك
لبست
##اوه
##كمة
الحمل
ماماها
اهل
كيتر
##بوش
##لوه
##طرطق
يض
##زاد
##ذه
##امع
عطا
وايه
كتفها
الدخ
الصغير
سمعو
المنا
##سوط
فوجهو
gt
بلب
تفيق
##تاني
ماتخ
نقولك
دكتور
##لسل
نعيش
كلس
دمعة
كازا
##ديث
وحدا
يتس
ومر
حام
خلاه
تنع
ردة
هبطو
##صى
هناك
شهقات
بيضة
اشحن
جيبو
الوجه
اث
كيزيد
##انك
لبلاصة
ومح
##شيما
واحدة
المرا
جدي
##زيل
قلبات
ادا
شيحاجة
الشوفة
لمرة
خصني
##صيبة
الحساب
وهادشي
##مني
البش
عمل
##اهية
بداك
ومي
جبهتها
توقع
##بانيا
فاير
حفي
بيكم
تاح
يعتقدون
ثلوج
يوص
##امح
مبغاش
نطلع
##شوفش
لحم
عقلي
بكم
لبال
اهلا
المشاكل
تموت
ومو
شخصية
دراعها
سيدرا
##اهلي
##بقاي
الفيلا
##id
##عك
هزيت
طير
##اءة
وبعد
##فية
##قيه
اند
ونص
نمرة
##اره
تفتح
ياختي
المجر
يفهم
وتعشق
بيني
##ابعة
شعري
نسولك
تجاو
واخيرا
##خافش
المدير
##يته
دول
اض
كنش
ايضا
مزيرة
قصد
التج
يحفضك
توق
##روش
قليلة
فالي
تلقا
##ونك
تفر
رتاج
كتحرك
حكي
مبتاسمة
نبقى
تعاون
قصير
##داء
وحدين
فنة
بعق
##ريقيا
اقل
##طاج
عطاتو
نهاي
الصغيرة
بغى
عضات
بنك
##فوت
توحشت
سمحلي
دب
اهى
##بتاسم
مدو
##ine
##ro
ايت
وضحك
وكانت
كتست
##داتو
وكيت
الداخل
شهور
وجمع
ضحى
##جيش
##انس
##ليم
##عاب
اليزيد
فضي
فاله
وحتا
تكا
فسي
##غا
كيقولو
الفرق
ومش
تاهي
حوايجي
فلس
##ay
محطو
فالبيت
##صيف
واضح
كيدا
والك
##مرض
ابنت
مير
غنت
الصلاة
لجهة
تغير
بوج
##ظار
##تهال
##هيم
##امو
جيداء
تفرح
كامي
العيالات
##دوه
تحيد
بصدق
##روه
لبر
رييس
حلوة
نسيتي
كديري
##توعب
احبيبتي
الجز
##هاتف
همام
بحدة
لطيفة
مابغاتش
خلص
##تهزاء
جاها
خذ
هضرت
ردي
ابدا
الكام
شهد
##ماعة
قاس
مشاكل
مفهمتش
داني
##ستر
وفرح
حمار
جاه
ونو
وجا
اقو
العو
نجلاء
لديك
##سخ
كتقولي
##تيم
يوقع
##ساع
وداكشي
##امعة
تلبس
فز
##عمل
##هن
دقات
##عش
حقي
يولي
وخرجو
فراسي
كف
فتحات
دوزات
كتمسح
نقطة
صدر
ماعنديش
فغ
كنتسنا
توجه
##هى
كاب
تيشوف
##الج
شعور
قصيرة
##انب
الباس
كنتو
##هوا
لبلاص
كريمة
مخلوعة
##ارط
##صدق
امتا
زر
هديل
طبيع
تبعد
اور
وخرجت
##داتك
وراق
قربت
تخرجي
لهد
مكانتش
ملق
خوات
##مير
##اهدة
##بتها
الطموبيل
اخاي
مجموعة
يفرج
بنا
يضحك
خوي
صابر
##لوي
الحمدله
غسلات
عرض
نظر
##طلق
ولادي
سخون
صدم
كيصوني
السف
الراحة
تاسيا
الوج
الرس
فشعرها
ذهب
فيهوم
فانز
##ah
ميساء
##ديل
فريال
الخبز
سمحيلي
مبتاسم
باستو
فريق
##ايية
صمت
ينوض
##دودة
نهضرو
مقو
بالفرحة
فالطريق
جعفر
دمو
سيرو
كثير
وقعات
وث
الصدمة
نقص
##طعم
ناضو
بيبي
الخرا
كبار
الشهر
هاح
جلسي
ردت
قس
وبلا
حنات
سامي
##اخا
تيليفونها
ليش
السخ
واقيلا
عقلو
الحقيقي
درتو
الموسيقى
##سيفط
##برز
تبعو
غند
##خين
اسود
برنامج
##ضرات
نفسك
موجود
صاكها
##ثرة
مقاد
فوقاش
وجلسات
##🇩🇿🇩🇿
وكنت
ابتهال
حض
##صلي
معنق
##ايه
مزوجة
##جيك
##لاتة
بعضهم
تبر
##سنى
فالاس
مابقاتش
معيا
العشية
##جرد
نورا
معمر
صاب
واف
اثير
حفظ
ودر
##دنا
##لولي
صافا
##جار
دوزي
##مشيش
نقولو
معصبة
##ميلة
ميسي
كيمسح
نهى
ساهلة
حاليا
اهاب
##ديهم
لحيتو
شوفة
##رفع
حكم
المدرسة
##ضوان
##دوب
فينك
وباس
مكاي
الوص
ولب
الصغار
ريبال
يسرى
باد
ندوي
العزيز
##هوشة
رش
زينة
الحكومة
الشيخ
##بور
##موعها
##ظات
19
فام
كاتع
يوتي
يز
نصيحة
كانها
لال
بالبك
شداتها
امك
المرضة
to
نيفها
##اطن
لمياء
الكري
ملامحها
غالية
يخليكم
بلعات
##كرك
##لاقاو
خنزرات
شافتها
الشيء
تض
شم
متق
وزير
##نيت
##مرك
عيانة
##فرة
محس
##نهج
هضري
الوحيدة
تاه
الجديدة
ينعل
فديو
تفض
##ia
يتزوج
يهز
##ناسبة
اون
منع
عشق
مغمض
عصمان
حادة
ونش
co
ازار
حشمانة
مرتي
سل
##ثوم
كتاكل
ولف
الاث
ماعرفت
##حية
ماه
##ليكم
تمس
اوى
الجل
جمهور
ميلاد
وماشي
خفت
يخليها
قرعة
##اطعة
وند
صبعو
##لاوي
العشا
##زنقة
عاوتاني
##ايم
##تلك
##لومة
الوطو
##اروت
##انز
ارك
السعو
خشا
بفرحة
##دقاء
##تكش
صفر
##lo
اسبوع
اساس
وداك
تخدم
الفرصة
##حد
##فضل
ابتاسمات
##اعدك
##لاتها
جيهتها
لقد
مسخ
لغدا
الحليب
شيطان
راكم
تلاحت
دليل
##اضر
فوقها
##صلح
مكرهتش
عيا
الدكتور
يصبر
##كياج
غرفة
نفكر
##خصوص
بسخرية
##ﻬﺎ
هدرات
رغ
##گول
هابط
جودية
سمير
جامع
كله
مكات
فخر
ارب
طارت
عاص
بلغ
فخاط
فراش
اخوك
التعليق
cha
امراة
استاذ
##فرق
##سد
##بش
##اوها
##فايفها
خسر
##ريفة
##خليني
غط
##كملو
##ربها
مغم
ندوز
##ak
معنى
عباد
نعيط
يبقا
##ميم
تيد
ضهرو
يعاون
لصالون
مرف
##بلي
باسل
يشوفو
نشري
نصف
##واز
##تص
الكرة
ليهوم
تول
باستهزاء
ومشاو
القانون
فوسط
وخص
لانها
##جعو
زيرات
بالق
##he
18
افريقيا
طبيعي
##اكيل
هاهي
##تلو
نوصل
وار
سليمان
تاخد
يجب
ضور
بحكم
mo
عنده
البس
كضرب
##ve
بصراحة
شغل
الدروج
ابتسم
##متا
خصو
هيروشيما
الملا
##ce
البع
القدام
##بيعة
##كتر
غوب
##ايات
سلطانة
الصداع
##اولة
جسمها
ساهل
فاز
##اهاش
حوايجك
ارحم
ياق
الجن
تقدري
##فه
لانك
انسانة
دا
##وفة
##تسم
وضع
تلفون
لاني
##سير
القصة
وملي
تقرا
يبعد
سليم
الفاي
لوجه
حلف
##يب
تيمور
ورقة
وجرها
مكياج
سري
الحبيب
فرحة
##مص
##وتة
جاتني
ناردين
تزاد
##حيم
شني
كنع
الهاتف
بصعوبة
لدي
كيعرف
باركة
بعدها
روم
مينة
نحس
الخوت
لسي
باقة
ماكانش
واد
احس
اعصاب
لاق
نبغي
باذن
##حيط
وشوف
فيديوهات
مركز
##رجف
تهلاي
##طقات
##زيزة
##قوش
الاسود
وايت
كيضحكو
##خليها
لجميع
وكيفاش
زه
مابقا
تهدني
##rese
##دوها
كنموت
##فوان
تفكرت
لبعض
مفي
وقلب
عارفها
مغمضة
مساكن
##ماد
المب
##فن
هنية
مغاربة
ناحية
الجوع
##جمعو
انص
ودخلو
يسعد
وطلعات
##شيش
ونس
رضوان
##حتي
كالس
مبارك
طار
وحطات
جانبية
دل
سنا
كلسات
النور
الاستا
الريال
##كول
ظهرها
متف
فوطة
يحفظكم
##باط
##يون
اسمها
نيفو
لقصر
ضربها
الشاب
هكذا
صلاة
##ينال
بتعب
حج
ولينا
الخاص
بالغوات
##افقة
##ab
موقع
##خم
عاودات
adrese
##خا
حميد
الفقر
##طى
##قز
##اجات
كيهضرو
الباك
اقول
لطو
##عان
متكية
##فران
am
##بوب
تقرب
لكان
فبع
حطيت
بله
عرفها
يشد
خمس
ومغ
ابي
##اجا
خاوي
##تف
نقولها
وياها
##عدو
التخ
ابيض
##زيدي
جوليا
##واني
اشوف
توفيق
دی
##حراء
قدامهم
العمل
##لسلة
جيهان
##سلم
داري
ميد
##ضها
ماغات
التصو
شورط
كرو
##لنا
نحبك
العز
البلان
حما
غانمشي
##صاور
طنجة
وبزاف
بربي
##us
##ارقة
ابابا
##ولا
لداك
##❤❤❤❤
لبرا
صديقي
فلك
ارض
صدمة
قرا
فرقة
هيبة
جواب
ناموس
فبلاصتو
ربما
##ميجة
الرجاء
تخشات
رضى
وايلي
كلثوم
مخرجة
ماغان
صبع
كرام
عليهوم
يموت
ساعات
اغلب
لمد
قاطعها
وتبع
وجات
اقت
قضية
بالصح
احبيبي
##تيلي
##رجو
فرحانين
صوتك
ضربو
جمعت
مبقاتش
المخزن
كانوا
##تع
يخرجو
زهر
عوي
رتيل
شنا
##بيش
الفنان
##اديو
لاحت
فى
وسام
روحي
باط
ايدي
يمين
سيدة
يجيو
ومزال
يجازي
مسي
تجاوب
الروح
##امات
هءهءه
you
جزاك
##قه
بدلات
نقي
كاتبكي
##متع
##ومه
مقابلة
وكيف
##ولشي
لز
##كلف
كاض
كتمشي
العكس
تصبح
خدامين
فالمر
mar
ارا
قسم
##اليك
بيتها
تهرب
كيديرو
ينزل
الفيلم
##صوني
##راغ
بقناتي
فجاة
متخافيش
البوس
يدخلو
مرتاحة
ولى
الجمهور
الضرب
##عجبك
##طلة
##اصيل
الغدا
ماتو
الدع
فقت
مقاب
an
لبن
##الس
مقلب
كيتفرج
الگ
ترب
##بوه
فيروز
نقلب
##هومش
نعطيك
يجمع
بعدم
ماشف
جيبي
صل
عملية
##لسو
هاكي
الصد
##لامحو
الست
لعندهم
الضي
##ابقة
بالذ
ضربة
تحدي
كالسة
##متو
ديجا
عشرة
سقما
البشر
لمكتب
تقبل
يشوفها
تعطي
الجمال
محرو
كيبكي
حيدي
دعوة
والق
نورة
قلتها
اريا
##اقل
مخنز
ورحمة
بقينا
دايرا
فحالي
الحلوة
تقر
##زواج
نتو
لبحر
الخر
عدن
نعيمة
رغيب
ماكت
معه
##خد
##دوى
السكر
##وداء
يبغي
فاك
وكتشوف
##وند
##بكة
اثر
درنا
تونس
غندير
##روض
مسوق
عيان
##اجع
ايهم
##سالي
##شل
##10
ديمارا
شناي
نر
ولم
نرتاح
وهذا
##قاتها
شكر
والغ
الخاصة
رف
دارهم
يقولو
مبغاتش
حقو
زاينة
سين
##ستاهل
ماتع
عارفاه
خاطرها
وجد
##طن
شخصيا
صلي
غرام
ريال
يسمح
وعق
عرفتو
خاطر
مبقيتش
##وليسي
شار
لرج
بتح
راحة
ماباغي
فالاول
##حملش
بتوتر
##ناع
ايكون
عفت
حقك
##صاص
##انيش
##تيك
ورجعت
وغي
تجمعو
كتج
فيد
يقرب
اورو
##كال
##لحة
تعص
حركة
##دث
كورة
لقاه
كرم
عريان
منز
##كمش
##بوها
وشحال
##قيش
الاحسن
سبحانه
سليمة
##عيب
مخاص
ومرة
فما
##موتو
قتلت
موف
لفيديو
in
##غيني
كتم
##اوا
##اقية
وليس
##رحو
##نبي
جنات
قش
خمسة
المدة
نبقاو
شبه
الولة
صبعها
غمزها
تند
التحت
كملت
بالها
كاتش
شهيد
بيتي
##جح
يغادر
تلقى
حجبانها
عنيه
وكيشوف
وعرف
برد
##غيتيش
نشوفها
##احي
محسن
الزنقة
بخجل
##user
لسانها
##نص
منش
خليت
حمق
بنظرة
نوريك
الزهر
لهضرة
جوع
الخاطر
كادير
##اعات
تسكت
ندخلو
شداتو
##ali
##امين
خرجتي
لانو
موا
##ابه
وفاش
ونجي
يعيش
قدامك
##صها
هانتا
لمدة
عرق
الرك
لاول
##ati
النبي
صالح
لولي
##سيون
ردها
نهاييا
تطلع
بغي
النف
جار
الغالية
عارفك
بور
يقو
الورقة
##راهم
##ناسب
الزو
ده
##بكيش
ايمي
فالدروج
##كتورة
الامل
رجعتي
مدخل
##تاة
وتا
المعلومات
عاقد
دخلها
وشعرها
حاجبها
جزء
راوية
قبر
كانه
يومين
السع
لقيتو
فالاخير
الاحساس
##ماج
خاصهم
ازين
كته
##مود
لقى
هضرتو
مافهمتش
نازلة
##رغ
##لينا
##تاق
ومك
هزاتو
##فاع
تبعها
صغي
بيجامة
سخونة
النق
مظ
##صلك
##ايع
ايمتا
لكو
نبدل
يحس
##عيشو
كاتجري
##قدش
طلعها
افكار
وسناء
حالتو
عربي
الموقف
يبدا
##دى
العنوان
متنس
ماكاينش
وقلبها
فالصالون
##اطا
يمشيو
قيمة
شير
مرك
قريت
طاير
##قولش
والحمد
داها
##روي
ويلا
الدوش
ايوب
لعرس
##قولها
اصحاب
تهدر
عاطي
ناج
##داث
تهدن
العصير
التش
ثاير
قيصر
قنت
##بيلات
كيب
##غيتي
زرب
وسي
ادهم
نخدم
##وتاني
دارك
##فكير
##جبني
اخوتي
مالكم
مهمة
البيض
فابور
جاتك
محتوى
سرير
رفض
بعدي
##حيح
##ديق
الورد
ريحتو
حاولي
##والو
الفيديوهات
##تيز
عندما
زرق
فيصل
ساهي
##عدة
##ir
الزمان
مشف
بيدي
##زك
وكاين
ثلاثة
النساء
كنحماق
معنقها
مبدع
لحمها
تقي
فتيحة
معندك
##ميه
تقتل
##ظي
المث
داخلين
بعمق
تفكير
##هتها
نضت
جاتو
##خليه
صند
كايبان
el
راب
بالدموع
ثق
رنيم
##وبر
##كرش
اولد
بالشوية
دماغ
لحرام
ساف
كتضحك
ويه
كيمشي
تيليفونو
فول
كاط
عني
القوة
كتافو
الدول
هء
##يرية
بعدو
الاسم
##ميك
لماذا
حرف
وماب
##اضع
كلما
افنان
تام
باغية
ch
مصيبة
##رفض
نقوليك
##متم
السعادة
تعت
##ستغ
##ينية
##كوني
عر
##ريها
هير
هاذا
قاع
نولي
والديك
وصلها
لاحظ
يهو
يعلم
عجبك
صفوان
يتو
يدك
صاحبو
مصعب
يقلب
اركان
شمن
وجل
تمت
اشافيك
##im
احتر
خطيرة
فالعالم
جنبو
##عام
##دش
حطي
عويناتها
جرح
حيتاش
##داتش
مادير
شمال
حقها
صفية
شاهد
##لج
ياقوت
الحسن
دعيو
المز
سوسن
وبن
تلقاي
عفاكم
نكونو
قفزات
re
خطوات
##عند
بالخلعة
كريست
کی
سميتي
لحق
لحبس
##كرها
مزالة
وخلاها
##داها
قرات
##كيز
يارا
خصها
##حيد
كسوة
##بتو
مولات
وحش
الخبر
مالنا
معقول
قادرة
##فيه
بذ
يهد
وقلت
الخلعة
الكتاب
جبين
سنانها
##بقاوش
البلا
##لقاه
براءة
مراتك
صار
منفو
خاشي
##oc
كيغوت
تعرض
ودنيها
رتاحي
##ليق
مباركة
سابق
كاظم
زيت
##ركل
شعل
قلة
##ليات
رجلها
فقلبها
حست
تاريخ
وهم
احت
##متها
ميرا
ناخ
##ناح
ديها
##خلف
جبهتو
شان
قديم
##بهاش
##ريات
نعسي
سلا
يل
كيز
##رفين
بكت
صرب
##لهاش
خصنا
عبارة
لاعبين
بصحة
بحرقة
اشهر
ma
دفنة
مخبي
##عرفي
كيقرب
وعاود
موقف
تستاهلي
##بلاد
رانيا
جوديا
be
سلاح
يتش
##عرو
##ونيش
السل
بنكيران
مسيو
##امها
كنتفرج
تخسر
مره
مغرب
ماكنتش
##جليزية
الڤ
سربي
24
مفاهم
##تيق
نعست
طلات
اتجاه
ماغاي
استغفر
رز
يوما
##احت
ذاك
##di
نتاع
##انوت
لعندي
داف
غض
##ملية
##موم
وانتي
وكمل
كتعجبني
مورا
معندوش
دفعها
هضرتي
##غني
##اسمين
كايش
🇲🇦
تنعسي
لفطور
فلسطين
مكين
الصحافة
مقدرتش
اسهل
##ديال
كتخرج
كثيرا
نهاية
كع
مابغيت
اتو
##ريض
الوالدة
حمقة
al
عاودي
##اديا
معلومات
كتمشى
الشخصية
مسموع
##نبها
تسنا
عايلتك
##صبر
##اجه
مقطع
قلوب
زيدان
البطولة
##راء
والجميل
##باني
رجليك
هاذشي
فا
##قولك
##اهة
مفتو
الافكار
وشدات
قاصح
مخنزرة
##خك
حطت
نازلين
دخلنا
##طلقو
وحل
##عاودش
هب
شعرك
رجعي
ارتاح
جواهر
كتير
فبلاصة
غانت
روس
نعت
مقادر
عيونها
منوع
المعنى
لعام
ودبا
وصف
##واد
كطلع
##ريدة
##ركو
##لقاها
دفعاتو
الزاج
غاندير
القطة
##قرة
وخلا
عرفاتو
ظهر
##بث
##ينغ
بطل
تصور
نظرات
فضلك
سف
ياب
يطيح
نم
وهد
فحض
برودة
##ميش
الدق
مود
##فعو
بالط
صاحبتي
صاي
فالمو
عطاتها
ريحتها
لسانو
نا
ياه
اخرين
الرباط
سوف
شادين
بالب
##بدلو
##ركاته
امها
خليل
ياخذ
هال
اصل
فبالك
زادو
حليت
##يتيني
##موش
الفديو
##حماق
##باه
الاصل
##اقد
جامعة
##طري
وفنفس
راء
الكسوة
وتجي
الوطن
تنهدت
عوتاني
احفظ
التوفيق
##اليه
مراق
##نهد
##هاتك
ويحفظ
##علم
الماضي
بلاصتك
##ادها
##قيتيش
يدور
الحركة
اسطورة
##طيع
ريمان
تجلس
نطلب
25
صاد
الحمار
امونة
كولها
##ستا
وراك
هازا
هيء
ديرها
جيهتو
اهاه
وسع
خديت
بنظرات
شاعلة
مجب
##بيس
ناخد
مكتوب
انتم
خلال
##امس
مغان
الكبيرة
يجعل
لبنى
الخبار
فوقو
ناموسية
##خن
كتنهج
الطوموبيل
بصر
الشيفور
مشاف
سيفط
تاحد
مستوى
##ue
##قام
فران
ختار
خلدون
نضرب
##ur
كدوز
وعن
##خليش
كرشي
ويجي
المرح
كتهدر
سط
صي
لقيتها
الحوت
روب
رخي
##اقم
قاط
ولح
الذرية
الاعدام
##اسيس
الحكم
وفال
##عبة
##ريو
##ضم
تسالي
فكرت
مسمع
لاحول
ونزلات
تمر
الجزء
بتسامة
اخبار
قلنا
اليا
لقي
رسم
وحق
ورب
اصح
وقبل
طلقي
##رجي
ساخ
ترجعي
##اصمة
الشف
طوال
##ستان
##دمات
تهبط
لاخور
تدوي
##ضار
امريكا
تحكم
لجيهة
##غات
نتمنا
##لاف
الخلي
فلع
التاريخ
دراعو
ضعيف
فمر
##نم
صغر
توحشناك
ماعندك
زب
حاولت
ايناس
براسك
غمز
نظرة
كيلو
طبيعية
الصالون
ولادك
كترمش
الوقفة
كيل
تجبد
قلي
##ديقة
##المة
منانة
اوليدي
هىء
سخف
خاس
عج
تحمل
وسد
هضرتها
##وليك
موك
##هولة
طريقو
##طاليا
فالفي
ورد
اعمي
هده
##اجين
لمغاربة
كنهضر
##os
معنا
ريحانة
##سرو
الشه
لحوايج
حشومه
بتر
لامي
##انش
يعاود
شهاد
ميري
البكا
التيلي
ثانية
##هاز
بعنف
وليداتك
##وجدو
كيخرج
متس
غسان
##تحان
عامين
العبة
دخلتي
يبوس
الحز
المدرب
هاحنا
ضرباتو
##اوك
كنق
النجاح
وفتح
العينين
تمات
سلامة
##ورا
بمجرد
وبداو
ياكل
كارلوس
بست
الحزن
الفقصة
وعارف
ودوز
les
كتفرج
نحط
الكار
خالي
ردات
##شيط
ملامحو
##لبسو
وحلات
عنها
مجمعين
مخص
طارق
الابيض
سمعي
صباط
اشتركت
اقرب
داود
البرو
اشارة
التن
ربعة
حاجب
كنفكر
كلامي
كتزيد
##لاتش
مافيها
ارت
مدا
تصويرة
لارا
لخر
وهادي
اسبانيا
اصلان
بالبكا
ab
وتبكي
نعطي
باسم
lik
وباش
##موس
كاير
فوجه
الضر
الحرب
دوزو
لود
فحالو
بالام
حقا
عالية
امور
لسما
جسور
##یر
الكلاب
كينهج
##ريز
الفرقة
##طيحو
عايلتها
الحيوان
وبر
باليل
يقتل
تزو
##نعاس
عبي
فقد
منس
نلبس
انمشي
لعشا
عيش
الامن
غتمشي
متافق
ملكة
قدو
كرة
##فتح
سلطان
عينيهم
مابين
زمرد
الغربة
قرار
طايحة
me
هاكة
راسكم
وخاص
تاكد
هبطت
العابدين
##ie
##اسمت
ونهار
##وايع
##عط
وتقول
عار
هالة
الملف
ينعس
راحتك
سح
بحنان
وزادت
##یه
تشرب
مانقدرش
فذ
غاديا
##عية
ايها
تانية
وتر
ناكل
عاقل
##ادات
وترجع
شح
##ضت
وبت
كثيرة
##بيها
بينها
##بطب
هاها
حطاتو
كملي
والاخ
حلال
الحضة
الغيرة
فكرشها
بيان
جبتي
##بوبة
سميت
طاب
غل
##ماتة
فايت
بلعاني
en
طيبة
نبدا
روت
حسابي
وباسها
هاكدا
مشغول
خلف
افرح
##ماس
##ic
بالمع
الغة
حسبنا
بسيطة
لواليد
متبعة
متن
الاطفال
فيق
فطور
انواع
باردة
المنظر
##ناب
وتك
دراهم
نصر
بنو
شامة
##ضعف
واجد
##لبسي
مارك
المليون
كاتس
عايلتي
##ونوبيل
ماسمع
ريت
تابعها
شادا
خر
فيقي
اخوي
##ونسي
اخور
بينك
الدوا
##لوكي
عصير
باخ
##بيق
متك
يخدم
le
فيدي
جمعي
##فعل
خان
يرد
تقل
وهبطات
فالو
فحالا
ساكنة
غيرك
توس
كنظن
بلان
طلقها
قدم
##ts
اشي
فحياتك
بلادنا
معندو
##رجان
قانون
##قاوش
مخن
وهنا
ينس
المط
ماتخافيش
الريحة
طيارة
اعو
لشركة
يمس
##ديلة
كتحل
##ضيم
الاه
امكن
بينو
كايدير
وبركاته
ادخل
##ناتك
حلت
ساكن
16
حار
خبط
التص
نسات
دوزت
17
فصدرو
فيونا
##our
سما
##است
لدر
عيطات
ترتاحي
الدورة
نعرفو
خداو
التاني
تسد
##اسب
##وفو
##وازنة
يحيد
باراكا
حدو
اشت
##اطي
منح
##احه
البكية
وته
لخرا
الاخبار
بيدها
يفر
السلاح
براحة
##ودة
##سكر
##ويس
جراتها
خرى
ديل
حقيقة
منعرف
وقفها
طه
وجب
الشاف
المجتمع
ستي
نفر
ساي
القرعة
الزبل
المعلم
زوجة
تاكلي
نساي
مبقا
نجود
##فاف
##شت
##فيد
عيون
##لفت
قلبت
لوجين
هابطة
##غداو
شغف
الغضب
عبدو
مطلوق
اكل
شفتيها
خدمتو
رسالة
##رفق
اسبرو
الشو
كايع
يرتاح
بنس
##ساد
ودخلت
شهي
##دح
بالاح
بغيتيني
جنان
لتو
قبلها
بسيف
##قوها
عجباتني
مايا
كيحك
البيضاء
نتيجة
حاجه
هزي
##وبة
فضل
الفريق
نديرها
ولك
وجدي
المال
كاتح
لكلام
بدموع
ياريت
يدوي
سهي
النار
تقال
مبر
##مرات
تشري
كوك
##كور
##خط
تلافت
حناكها
لحضة
الغزالة
وهضر
مدريد
حنى
##تاص
نتس
فحين
##قيقية
حلمي
ويفرح
حطاتها
بلد
حوي
##عدي
راسنا
##تصاب
وجبد
فاتجاه
##داي
ايش
لراسك
ذر
العقد
السماء
دروج
لمص
الزيت
انشاله
قالتها
كرشو
##اوني
##وجة
مشكلة
تكت
ثمن
تهلا
بحي
تشو
مراة
الزي
بركة
##ميات
##كريات
لخدم
تور
##ليهم
عميق
تاد
##قوليه
ولادها
الوازنة
مرتك
اكمل
جمعة
عشر
##كيط
متبقاش
تبعاتو
تبوس
البرنامج
##ادس
الغي
2016
بالان
سميتك
كنو
حمرة
##نسي
تاق
بديتي
##غال
موح
ماحس
غنو
كتقاد
نقدرو
the
فتحت
وجر
مغات
صحيحة
##زلو
تنطق
مكيت
##عرفوش
العروسة
14
خشات
التك
عرفو
كنس
##قوليها
ماعندو
يكفي
قولو
نديك
ويحترم
كيدوي
##اليق
واقيلة
التعليم
بسيط
مخليها
تمو
##كاء
##ge
##اكت
الدرب
سان
##نوش
تزير
##ut
الخاتم
احترام
الصحراء
وصفات
وبغيت
##لاجة
يسكت
الوراق
ومشيت
بنع
مساحة
وخصوصا
هادية
ترس
ولادو
لمخ
مهما
المتو
توجهات
##توها
##رفتها
حيدو
##طبخ
وتب
غتو
قرت
ليام
كاتقول
عاودت
يفرحكم
##بتك
كيض
وفر
نشرح
تزوجت
مسافة
تفاهم
لولا
بالخف
خيتي
##جوم
##ادمة
##لكش
خدمتي
تبرك
درتها
ربيع
هر
كترجف
تعمل
اتصال
ومد
الكلمات
فصمت
منزل
مدرب
ثلاث
##عار
نعسو
اتكون
##ذار
الطيارة
عجبها
عاصم
كيبقى
اليوتوب
##فاهمو
##سنين
يوتيوبر
مياسين
السعودية
انج
تسلم
خليهم
وسيم
لطبيب
مدار
كتسنا
لاد
وجود
لقر
الشفاء
تولد
##طينا
السن
##اركو
متابعك
افك
غاب
##الث
وباقي
##وقفو
اربي
##ينه
ميك
مكينش
فترة
نايضة
زامل
موسيو
قصي
الجمعة
خدودها
##دني
##زيت
كايقول
يحل
باباها
سلسلة
شوه
می
كيهدر
كيعجبني
امال
الدعم
الصيف
الفوطوي
عويشة
نهيلة
ودو
القص
مسلسل
مقت
اجيو
معندها
كثرة
ای
راو
ازاد
قطعت
ريحان
الكورة
مفهوم
هضرات
بير
ظهرو
وست
اغاني
فهاذ
تنو
نزلي
##لاقة
عتق
##lay
خطي
دورة
ضغط
لبسو
تمشات
عاطيها
##دابا
غالط
بلوك
##فوية
كيسر
ونفس
كانشوف
##لتهم
يسالي
##😭😂
شوميز
##ليو
كتز
##موبيلات
فالوقت
تحاول
##لسات
حدر
ونتوما
##ايت
اعمال
الكلبة
صيفط
شوهة
ضارو
##خرة
##قوليش
حسناء
ربيعة
مشت
الثمن
جلول
ضيع
دیال
وسكت
انير
عينيا
يجيبو
ماقادر
تربي
##تونا
##لقاك
فوذ
الفون
بينهم
الاحترام
60
فالهضرة
غيد
##شاء
ليوما
كاتحس
الاكل
قربو
##بهم
دارتها
نجمع
لجردة
الجد
##غلبية
حارة
داو
تشت
لوكان
##لبة
لحي
ساط
الوك
فايقة
ابتسمت
دوشات
اشحنلي
العج
نتينا
القحاب
واصلا
##انع
قمة
##ابها
وحس
طلاق
بينوار
طفل
غو
الداخ
الصور
الزمر
##هدي
ريما
اجمعين
سوارت
##ستغرام
بالفيديو
يعاونك
يتبع
وديما
مينا
حابس
##نبو
تحنى
##شوة
نجوى
رعاد
سيمو
##لاكار
حاضيها
مناش
##gh
غيجي
كتجمع
مليار
لمدينة
فكت
الحفلة
##اليز
##خيل
ونطقات
معارفش
والمس
العصا
ويكون
خرجنا
تخط
كيبانو
توجد
وحده
الدور
تكبر
جميعا
2017
مباغي
##اريس
لكبير
والط
شعلات
شادها
غلي
ليليا
كتهز
الساع
توب
يدين
سنايا
ندوش
##صدم
##لاس
السنة
فحوايج
##اسل
تبين
بيازيد
تخليني
برجليها
##حص
##حاليل
لبيرو
نعاونك
بشرى
الوليد
داوي
الشرجم
##بلغ
بلو
تفضل
ويج
طريقها
سالاو
تصدمات
فاخر
لولة
احي
نوضو
##مدينة
عك
غام
لدارهم
ورو
يبكي
المون
اسمي
ميل
شغلك
وطل
##علها
##اوط
النمرة
نوصلو
يشافي
الوطني
مغادي
نصبر
جسدها
عنا
مقلقة
##ترة
مايت
شيفور
ضاع
فايق
برب
غفلة
##جيل
كايجري
جم
##لول
احمر
ولكين
##همة
فالمس
سواء
فهو
##غبة
##دوس
ماعجب
##بحر
حيدت
كيبقا
متخل
##لعن
لمست
الاستاذ
لولد
نفسه
##تية
فرجليها
معلق
عشرين
حاتم
كنضحك
لبوليس
باينا
كنتمنا
##غار
واجي
الشان
مساج
تخلع
صفحة
تفضلي
سكن
كطل
موخرا
حانية
##اسات
مالقات
والن
السروال
##ارتها
منظ
##وشة
اكادير
عارفا
قدرات
مطر
بغيتها
محلول
شديت
فاع
نسالي
فاض
وحال
##قتي
تسول
فتو
##هادة
والناس
وراج
ماباغ
مندير
مقلق
##سكت
الشكل
بهد
خب
الصدر
الوعي
دغية
فالصباح
مفاج
تمسح
فالز
##قوه
طلقني
واست
حفيضة
بهم
بداية
هكدا
درية
تعيط
لواليدة
لولاد
اقوى
رجلو
رايك
بساطة
جابها
كنتس
ويخلي
قبي
##طاي
العرش
وقطع
##اصي
فكري
عيطي
خاف
قهو
كتبت
لمرا
مريام
تصدمت
صون
راسه
وتف
نوار
جزي
كافي
يفتح
الرجولة
مذ
نبداو
البيرو
يطول
الافلام
وماك
##رجات
صالون
الفجر
وماي
خن
متبقايش
مبعد
كتقرا
لوق
اعطيك
الرسول
وجي
كيدخل
وبقاو
##ءهء
تلفتات
وكر
فالكوزينة
##طحو
اسمع
تجب
عدم
الوسط
كسيرا
لاج
##حث
##قلق
انما
العجب
ليتني
هيام
رايد
رها
عندهوم
باستها
الخطو
اعمل
لميس
تحبس
الجيش
معهم
وهيبة
حركت
وصفة
وداير
##كيك
النتي
تجربة
رض
ملاح
بيضاء
##طول
وصوت
بخفوت
##ديري
##قلبو
دام
##تلها
نضر
بعيون
لمار
##ضياتهم
يستاهل
لراسها
التليفون
ركابيه
##توك
نهدر
##حشم
شاي
الوليدة
الحش
اسال
##سمح
##طفال
ادو
رابط
##قيم
التربية
الرعب
بخفة
العسل
موال
##حتار
معلم
ادر
شروق
اروع
ولبسات
كلكم
الشتا
وراء
ضربت
عايلتو
الفن
حامل
الخش
دينا
نبغيك
##زاب
##خسر
##شيطة
تيف
المشكلة
لجنب
البارصا
اروى
النها
گال
المانيا
فلق
متوقع
ريقو
لغة
بالاع
ميمتك
تصبر
الحارس
فطري
قفطان
لطواليط
بوالو
##سور
##ضرا
كنضن
غالبا
بكر
فيلا
بالر
lt
يبقاو
مافيهاش
والمش
ملف
وكون
كتفهم
بالظهر
الجردة
مغوب
وخة
13
##ﺎﻟ
بيناتكم
##ist
##سيمة
تبت
كايضرب
الوطنية
دمع
يوجد
جرو
طايرة
وغت
الحلال
سرح
##اءل
##هيش
ونرجع
عوجات
تقلق
كارو
لفو
##طرا
##فيت
##👍🏻
##عيم
بابوني
يفكر
كيداير
جلابة
##لكم
##تيليفون
##ولتو
##ضرني
اهىء
##اونو
مقدرش
##ملو
كاتفكر
لحاجة
وطلب
##كيلة
لمكان
##هدن
يخل
##ac
لعالم
خاطري
##همني
كاتب
كود
##طعو
العابة
مخط
حومر
ضعيفة
المكياج
##نقز
حقوق
بالحق
بالضهر
كلب
يحساب
ماكره
تفرجت
البري
المحامي
حاضر
##جها
الجاي
فحالها
وصلتي
جربتها
دجين
##اكياج
علك
غيرو
##یت
ترح
شافيها
##aw
##افض
لكاس
تيشورت
مقص
الشراب
الرييس
وغمض
قاسم
##ايها
علامن
بحالهم
صباعو
دعاء
تكر
روحك
منذ
تسناي
اتص
داع
فطوموبيل
##دس
فيما
مالين
مخلوع
نبكي
##اند
داركم
يتم
##فضك
بوز
هدوك
##برا
##جرو
##رباط
##الدو
لقلب
وفع
جبدت
فجب
##وراق
توت
المحل
وصح
الانتر
##طك
معق
مسج
فبالها
توك
##50
##شيد
التصرف
نزهة
بلح
عطات
زاج
##بدة
غسل
##ومية
ماعندها
يكما
زهير
الاض
##نتر
الكثير
تزوجي
رواي
حفلة
حنينة
السما
معاهوم
فكرتيني
علاقت
فحنكها
##عاف
خودي
مجه
بوحدهم
حالتك
##لاوة
##اهير
كتد
اتج
عرفتك
ماباغيش
حظ
الفض
##ركب
سالينا
ساح
عس
غتح
##ot
عارفاك
المراية
##صام
ومق
تعطيني
##صراحة
كيحرك
##ادور
راجعة
قوليها
وناس
كنبكي
الشرطة
حدرات
##عن
تسمح
مافاهم
مكمشة
جراتو
ندمت
شنايفها
##فري
90
كالعادة
صالحة
الني
فالخدمة
ou
جين
ويرجع
ضحكتيني
ساعتين
سحاب
فدوى
مشروع
##هضرش
##ماتش
الاجتماع
جداد
كتبقى
لقناة
تعرفو
##ايس
##طش
##ليس
بيج
##قاتل
وتعاود
تخاف
لبيتي
كتعاود
الجواب
تدور
ابنيتي
المهدي
ركابيها
ومكن
خلاني
نشاء
الكن
##ايبة
عينين
فضيحة
بالفر
مخشية
##بوط
نسبة
انصاف
الغلط
موحال
##نسلة
##كرهك
فالجردة
الدرية
الطف
فقناتي
جايب
قبضة
لعرو
منى
##اجب
##انيو
حرة
الفوطة
##غان
وبي
اخرا
كتحمق
الدعاء
لوخرا
الاشهار
جزايري
##ya
بهادشي
لهدرة
##لوبة
الجملة
##امية
##اشية
كيقرا
الميمة
انفاسها
لاصق
ماشاف
الشوهة
صاحبك
##نعس
معاذ
هاء
##فاد
##يدا
دوري
سهى
فجيبو
زم
العاجل
تين
بلس
قن
هانيا
##ايج
##ولون
العفو
تذ
خه
محال
لقاء
روز
##حكم
##افيا
تفكري
يجري
ملابس
بدو
شدة
نساو
عارفو
نضحك
هيه
بنية
تگ
سبر
الشافي
ابرا
خلاو
##اليتي
انتا
##اسيون
لذلك
السوق
تابعاه
ماين
الفترة
توا
هربات
الكارد
فبيت
هازال
##bi
علية
شلا
ومال
نحيد
مانع
كيتسناو
اوروبا
##صلة
بالاس
تقولو
العيب
##لسي
##ارنة
القنوات
##اليها
لوخ
فحياتها
تقيل
##غد
##ونج
الكبار
الاخرين
حكيم
فالاسود
راقي
زاي
كونت
فيديوهاتك
بالزاف
عمك
مافيا
الصفحة
انسة
مغاي
ناقصة
اسمو
الطاكسي
تويت
كيلعبو
##وليه
شوق
##يتهم
يهبط
نجيبو
مقدراتش
##لاقا
طلقو
الاعلام
##log
بلهفة
معج
تصب
شهرين
فقلبو
##ميو
يخطيك
الاحمر
مدي
نايل
فالن
شفتيه
نشد
##جاوبش
لكون
##دمي
الين
تعامل
وسمع
مغديش
موش
عريانة
حمل
خضر
ماء
تجاه
##فهمش
العلاقة
liked
##وسة
الحد
النتيجة
تربح
##رط
الفير
##اودها
لنفس
فني
نسول
بليل
غايت
عشان
بلادك
##زيك
التصاور
ودموعها
الاسبوع
عجبتني
يوفق
تركيا
طاحو
الدخلة
مرور
عامرين
السير
تير
قاي
كتحك
##اعن
الدقان
رينال
مادر
زبل
واول
tv
🇩🇿
نسى
الولاد
كيتسمع
عان
عجبو
##توبة
عوض
الهدف
الاطباء
فمن
##طاجي
موسى
جربت
المعقول
فبيتها
اينا
##اقت
##ثيل
الفم
الجزاء
التعب
العيا
السرعة
دفعو
##ايلك
كيوقع
مستغرب
بوش
عراق
واخد
التانية
يعفو
لقينا
سمحليا
مستو
يتفرج
الضربة
وبس
لمق
طبسيل
##قلبي
معط
##اطو
ماتنس
موسيقى
الجاية
معندكش
##ونت
لبو
خطا
ناعسين
##تيرة
سوريا
ناوية
يفيق
الخضر
تاويل
play
ستر
كايضحك
كيعجب
##nel
دايز
دارنا
يسحاب
##صباح
##ونه
##فراش
ليف
ميتة
##امرة
فتاة
غيرها
نتلاقاو
لعين
##ويو
ادن
كادو
ويا
##طم
سوقك
##ذو
##انه
لبار
الاتصال
موعد
قربها
كيجريو
##شع
ومخ
عنه
اصدقاء
جنى
##صق
موصيبة
تهضري
لث
الند
تخيل
تكتب
غتس
##بض
ماماه
جوب
نورس
لابسين
##قوبة
##لته
اهتمام
تحركي
ra
دياول
##ديهاش
ويديه
##عج
مسالي
نقرا
فحياتو
الضوء
معتز
رضا
ناف
بالور
نحب
##تقبال
العشاء
##لبك
التط
قداش
2018
الاجر
والان
##لمات
ليكوم
القرار
ودنها
سمعني
##مكار
بركان
يرجعو
جيل
كيشرب
والمع
والسلام
ماهو
نقزات
ولع
قلال
دات
مزي
العص
يكبر
تلقاه
ولاح
لبسة
يهدر
البد
كاينا
فدروج
نطقت
##يفط
لاصقة
يعجب
خدمتك
ساب
##شرة
ويديها
وزايد
فاخ
مانت
لقيتي
##باع
بمكر
النظر
لقطة
##ظروف
##tion
##بغيني
غذا
المغربيات
مرضى
##خول
الجامعة
الوز
يبين
##ارين
فعنقو
فجنا
وتكون
الجلسة
سهيل
##بانش
دخول
وگ
##فطان
وجو
التغ
تورية
مربعة
##اشا
ماذا
وطلق
خاطرو
ضهر
##اكر
والاح
ماقدراتش
ادي
قاب
كياكل
اسية
مومو
خود
امن
الاخوان
الواليدين
زنقة
تحق
##سينغ
جزايرية
حضر
قديمة
الاسيلة
خسارة
ارد
تلاتة
متزوج
علال
تستحق
##ايك
##ونص
##اهىء
والام
الاعصاب
الرحيم
عروسة
دارتو
كارد
##اكس
الافضل
اكي
غنس
ندي
ريحت
كايتس
الاغلبية
ودفع
الرقم
##حساب
رحم
قض
##حمد
هدف
تريكو
جبينها
ابراهام
##المي
الوي
##ليتي
تحنات
تحنا
هنايا
تخي
يطلق
##ينهم
المساعدة
ضارب
جزيلا
تطو
تمارة
خليتي
عذ
كنقلب
##لفون
يجازيك
##بول
لعندك
الحجاب
الفور
الاعبين
واجدة
ولدات
وبارك
of
غلب
ليزار
ماهي
بصبعو
هاهيا
معلقة
غايجي
نكت
وابا
##جية
الطلاق
بدلي
كتشوفو
عيطت
رخ
فاح
الموقع
##اقف
فالزنقة
صاحبتها
تلك
##درهم
ويشوف
كايتسنا
اصاحبتي
رزق
المرايا
##ضرها
كتنخص
خفاف
حرق
فعو
لار
ليست
يعطيه
سمعيني
طلبات
قبرص
##خابات
الاحد
الجميلة
##لسلات
اغل
دعموني
مربع
بكلام
##صات
بعضياتنا
##ويل
وتوج
الملولي
اسوار
فرحات
زايدة
فطو
##ub
تقلي
ماكين
لخرى
معندهاش
حابسة
##ناني
وحي
06
فطر
العار
نوصلك
افلام
##غام
##ديتش
لعشية
##مشاو
زبيدة
ﻛﺎ
اينجل
ذه
اناس
سوء
حشمات
يعطيكم
بنسبة
وزو
ميمتي
ساكتين
العذاب
الفع
نقطع
التلفون
مهز
عاجبها
بيتو
معرت
##ركع
وتفكر
لحظات
مقال
الحجر
##وء
##راو
كاتخ
وسدات
حيوان
مكايناش
ساليت
حماقيتي
كنواعدك
##جلس
ومب
تحول
برجليه
غمضت
قياس
الكريمة
ساد
##ومن
عنك
##عوة
مغطي
عاشت
##نونة
تحيه
##ضيق
فداكشي
ريوس
استا
وكلس
##هشة
##فاك
وبقيت
بدلت
قاطعو
تاشي
لحيط
الذين
حشمت
الحريق
لهذا
لدارو
##جان
تبرد
طلبت
قبالتها
##غرو
##لامو
كتسنى
##هاهاهاها
رونالدو
تربية
شن
لري
لبرد
التفكير
هزاتها
قدس
##ياش
بعاد
ماعندوش
كراميل
مسلمين
وكتبكي
##فتي
وغوت
شدت
##اضها
##ضحكي
يوماين
##حلي
##رعد
فراق
##وهاش
كرهت
الريح
وزوج
تخليه
بالسلامة
كش
##حلة
شيي
اليك
يعوض
جيران
##un
##اتهوم
##اضعة
نقية
وتمشي
استغرب
لفراش
بالنفي
الجيران
اصوات
المطار
العزيزة
وجع
الاهم
كلات
دوات
نلقا
كيتش
##ok
الهام
بشويا
كط
ورجعو
ياي
##اتساب
##كرسي
الفساد
فبالو
ha
سبيطار
##توه
الحنان
##سيوة
فشفايفها
دالم
يصب
غتجي
نهز
قدها
##ضرك
فقلبي
كيتمشى
تهزي
كتبغيه
70
هداية
ماقدرش
غاتمشي
الوضعية
قحبة
##فير
الدجاج
نجاح
نشر
مكتب
يشدها
خلو
السك
ابتسمات
جاسم
الپ
يمن
الجهة
غنمشيو
كلت
وسير
يانا
ايطاليا
مولاي
جمعو
كترجع
الغطا
القط
تشترك
باغيها
نوجد
##تينا
##ترا
##قتو
ومست
تخلص
الصالح
فمه
عدو
##نيو
بتساول
دز
ضريف
وعنقها
بكثرة
قوليلي
يبرد
دمعو
ياح
منال
بحماس
زيادة
##توم
ازرا
يريد
حبيت
شوك
##one
علام
تشرح
##بحو
بجنب
نشرب
كتعرفي
لبلان
##ويش
محطوط
اجتماع
بلعكس
بوجه
##خش
اليس
ثقة
##ريعة
فالخر
ميز
ماتي
عقرب
قدك
وعمر
كبرات
طحت
ندوزو
بالاش
المخدة
ارجوكم
الركبة
خبي
قصر
بغين
وغن
##ولوار
الميس
بالدم
ثواني
مسحت
اهد
حزن
##برك
الكلا
مباغ
لكلينيك
زيدو
##اوم
حليب
وكس
المقاطعة
انفاس
تكس
الشارع
تاليا
راحتها
صديقا
السفر
ركبت
العشرة
الفتنة
داتها
تزرع
فلخر
تفس
سور
منير
الصاك
##توي
تفرق
مبغيت
جون
##دتي
ويهبط
بلدي
##قراو
قبلك
السرطان
قيم
الغد
واسعة
بقي
يغوت
##يديو
كتبوس
الحمر
يعطيها
ديريها
وخلات
جدو
دجاج
عدة
نعمان
حبو
كيم
هدرة
فخبارك
وسطهم
فالسما
زدتي
chanel
es
تهر
هت
##باغة
غالب
##ومي
##مليون
بلاصتي
كضور
##اكيط
تعاب
قادات
امدام
تقاب
شال
##ذوب
رجولي
وعليكم
مخبية
سجى
هع
##بوت
##هتو
والمو
كانش
تنسى
مليوح
المنطقة
بارت
ولق
عليكوم
بلاي
نخاف
##ina
تفي
2020
عاقلة
##فارها
##لون
تصوير
##علو
##21
السيمانة
فاين
لتح
يهم
بالسيف
امري
كاتقلب
النقاش
##نوا
نتسنا
كتسول
##ينوار
يفرجها
الكارو
المرجو
امث
عارفني
##ابعين
الزمن
مجاوب
غلطت
فلوطو
بلم
وبو
##سطو
##بيعو
##سيك
مشاهدة
تحي
وجميع
الجميل
ونشوف
حية
العضيم
صحتك
سبة
##وزة
تانتي
كاميليا
##كتي
عملت
خطف
كيعطي
وفيه
اتس
سورة
كدوي
##اطري
الغابة
معارفاش
كوس
يسعدك
##ستاهلش
ويرزق
عود
يوميا
ظلم
انق
مساء
يامات
تلو
اعجبني
يقرا
هازين
تخلعات
بشوف
##ومبر
النت
عون
ليلي
لست
##سرة
##جيني
##عموني
ماندير
حيدار
عريضة
سرو
بغاها
القدر
القبلة
القديمة
راجعون
80
قاف
##زف
##بنا
وجاو
بملامح
كيتسناها
والر
مسرح
الكوم
يتق
فعيني
خليتو
##تلفة
تعطلت
مطو
نكملو
كيعيط
خالتك
يعي
منخ
مثال
معان
الغوات
المستشفى
غضب
##وتك
النموسية
المحتوى
لهادشي
ولاكين
هبطي
سوي
قاليه
go
صرف
يتكلم
فحالة
حصل
كيسول
مويد
مايدير
فكازا
فبن
المسوولية
غلا
اشد
الشرف
يشافيها
ستة
وراهم
ايدك
2019
فدر
كاتكون
الاسف
فالسي
الطر
##سمية
فالقناة
رشيدة
بالذرية
غيري
تشجع
فحضنو
فظ
##كام
مجهد
الاجت
##تيهم
الكاميرا
البعض
رجالو
نقز
زور
هخ
##ايشة
اباء
حمام
الفرنسية
الاغاني
حقيقي
شرا
صدفة
تلع
غار
##تخر
مشاعر
القسم
يحبس
عقبال
دالح
الحاد
شربي
نكتب
##امتها
الجيل
معنقاه
سدو
نادي
##اشف
سهر
نساء
خطر
كيبري
##عودة
فنظ
حزب
وصفاتك
الجرح
كيرجع
سايق
##يقة
اشهار
##men
قاصحة
بنفي
الثقة
جهدها
جاء
غاتو
##صري
لاغ
صحابو
قدرت
باعجاب
المسوولين
غد
عرفتها
ربنا
##ous
وكيد
حلاتو
يديرها
##الوان
##اهرات
##موها
يقدرو
وكولشي
فية
فاليل
البيبي
تابونا
##كى
جملة
رفيق
فصدرها
درو
##امض
تعطيه
غيا
##صيل
كيهز
درتيها
تاعك
صباعها
##🙏🏻
طلعتي
يلعبو
##طوه
لواه
##قلو
الجهد
الامام
ياخي
والعافية
الحرارة
نية
##ناد
كاتبان
اعباد
مامي
وزايدون
لمت
##دامات
لحالة
##الين
لكرسي
عبق
الفار
ياع
##نشق
##عصب
##غية
##طوا
كاتبغي
تخلعت
بمو
جاوبات
تحركات
قلبه
تاعي
تعيشي
بعينين
واعرين
مادار
ماعارفاش
المظ
العساس
امشي
حرب
باغيا
كورونا
يعمل
مقاطع
مافيه
وحطها
اشتركو
المتح
ومنين
##بعك
جاوبني
هابطين
vlog
تعد
تنهيدة
##اسا
##وفها
##ستيرية
تشوفها
##هنا
##بلها
وعندي
الراب
الرياضة
ماكرهتش
دكر
مدرسة
المثل
وقفة
ومكت
محم
العلاج
موافقة
##عدب
##ارجاء
ماكانتش
##ثماني
اطفال
كاتسمع
ودور
يحن
الصهد
الاعمال
سولت
الوصفة
توف
##قود
مابغيتيش
يقطع
حاولات
صعب
##ريمة
الهي
بلطف
قلتيها
الانس
المشاعر
زوجك
خلاهم
التواصل
تقولها
فايدة
يعرفو
##فوني
مولف
ترض
لصدرو
😭😂
تجر
لراسو
كمش
ثقيل
كتعجب
بعدت
تسب
وفيها
##طيتي
عقدات
لعيالات
سوا
سوداء
فغي
نربح
كايبغي
##وليها
ماتبقاش
##قتها
##غربة
##بله
لكانت
فبالي
لاحها
كيوت
انتوما
ولايني
بسبابك
##يرك
##ابك
نعاون
مكتعرف
هذشي
عدنا
معروفة
##زني
##اتهاش
دورها
واجب
هام
##ندن
البقرة
الصحي
##حتى
وديري
##اتذة
##اعل
لعقل
بحالنا
استق
الدواء
لمدرسة
##ازات
نجاة
يرحمهم
وخلاتو
خري
عنوان
القراية
يوصلو
جاسمين
عاضة
يلي
محي
بعقلك
##صاي
وشاد
وشدها
متخافش
الجنسية
النس
الرابط
دونك
##اتا
العود
##خوطة
راءف
بمر
امرك
##منت
مابقات
تطلب
سلعة
##طبة
بالعربية
كتجر
##عيه
جلسها
البرلم
غين
فوز
##ابعك
التعليقات
وينو
##ملك
متل
##وغ
##افين
##موه
عطاني
##هوى
اسراييل
السبت
الجنين
الصرف
بصمت
نسمح
منقول
وباغي
لقهوة
سار
وبد
ويرزقك
تطلق
##بلو
##وراء
##برها
##اريع
مجاو
عاوني
حافظ
انجي
اليهود
دافع
شج
نجيم
غالطة
##ستي
واليد
الحلم
قبلات
العرض
وتخرج
روحها
قليلا
رهاف
مبح
ماقدرتش
تاش
بالما
بقلبها
فتيليفون
بلى
##طت
منتخب
لوجها
روج
##ثق
المزيد
الخدم
##ترات
##ارن
لسبيطار
طاق
مايدار
يصوني
فهي
لمج
##لقاي
تسنيم
باغيك
مانعرف
وتنهد
اصحبي
##حى
الغرب
وبغات
##باري
الوحش
عامل
كتعيط
##زوجو
كيخلي
مقادة
شوفات
نجلس
نفرح
##هورة
وسم
منزلة
راديو
مية
##نار
الكحل
كايس
المراه
عاض
لاء
الخارج
بضحكة
تولدي
اوسمان
منق
تنش
دويت
اديها
بخصوص
ذوق
بعيني
حالتي
الاوطيل
مافهمت
gta
تقت
مكيناش
الرحمن
وضار
اخرج
الذه
معد
كيرج
##شين
##af
##🏻♂
كيسوط
تيتيز
خلعتيني
##گر
##ريضة
وجدات
مادام
ماديري
شييا
##سرير
حماق
##ديتي
##وكا
سمحت
وطبع
تعطلتي
##نكو
الحوار
واقلة
روبن
لخبار
ماخاص
هاتف
##زاك
##قلة
يوري
عذاب
##اث
ينطق
كاضحك
حديث
شديد
فكو
يتر
##لتها
##ارتك
الباقي
تذكر
البن
خرجها
ﻋﻠ
مشاع
ومام
لوراق
يوتيوب
##da
##انسي
##لاثة
راحتو
خليفة
نشف
ستار
واكيد
شربات
##غدا
عمتي
##كرهو
ونور
يسول
##وهش
عطاك
##ردين
الولادة
احسنت
ينز
والاب
##نتين
##لايص
طفا
##واخا
##یله
انع
ضحكو
كتشهق
السمطة
##بادل
الامازي
عباس
خروج
##كيف
بلور
واذا
جنابها
رباب
وقتها
كتبغيني
كيترعدو
lo
بمس
##الهم
الويل
ودموع
نقتلك
عافاكم
خاتم
##روة
تزرعون
ادام
يوتو
##حاد
جدك
اخرة
تفطر
تشرف
##ناف
ارتوك
راحنا
##na
كنست
اسفي
كاتحاول
غبرتي
ضريفة
##ﻨﺎ
ولدنا
تصبحي
الحار
اختار
قراب
حامض
##لقات
العرق
تعشاو
وبلي
مراقب
##عوض
رجولة
لبلاصتها
ساق
سوايع
وقتك
كيشوفها
بريية
مباغيش
##هلا
##اقيش
الجمع
##لايك
لطموبيل
كتهضري
تيفاوين
الزامل
سمعها
##شفاء
لتع
اﻷ
##كيت
##نود
الفق
اعجاب
انشاءاله
ايلاف
العيون
كنحاول
##تاء
##قلي
كيطل
مروة
##راه
##خال
والز
الحدود
##روها
ضرباتها
##med
زمن
لحاج
عايدة
المرضى
قتلو
##ضان
عاونوني
حضي
##حه
عارفاني
##عى
العاي
شفنا
تزع
نايف
بود
وسيري
تاعو
طبق
اصبحنا
السادس
خليج
الجزايرين
المض
##ندق
لعبو
##يتكش
فخاطرها
يتي
كترد
كتجبد
الجنس
كايشوفو
##هند
##فيفة
##بانة
##عمني
عشت
حنكو
##ناية
لخدامة
خصلات
تمنيت
الموسم
تعلمي
عمرهم
لقاتهم
ويعطيك
جرا
ومان
##خرجش
حملك
طالب
كبرت
فانت
نوقف
نريد
##حتك
##كير
تحيا
المجرم
معليش
الحية
طفات
فاص
##افد
امورك
تخافي
سمعاتو
البراهش
سلات
يعيط
بدينا
تصل
تقلبات
عطيه
فدوك
##ja
منورة
ماكلة
حالك
ينفع
ارمي
شراب
عاله
##list
##مالك
وفوق
القنت
##جيه
ماقاد
البرهوشة
عبيقة
شماتة
نبرة
تيفي
مصد
غادير
شاك
يكتب
##حنا
كتبقا
##جيم
يعافيك
##رفص
ماتبقايش
##ترمة
الجزايري
##فتف
##ماك
الهوا
الحانوت
القمر
مختلف
القاعة
حاجا
يهوديت
اير
جماعة
قادة
##طاس
والدي
##سيه
حيلة
متوترة
شاه
شرك
##لد
تحتها
##ويه
فليل
السوداء
درس
استر
السياسة
مزوجين
بسهولة
بصحتكم
##القة
##احبو
انصار
المهمة
الفات
امرا
تحش
فالساعة
المجرمين
كيحل
وهزها
##ami
بوب
شلال
##غن
والراحة
اعز
##قتلو
الثلج
ماشاءاله
مرجع
برهوشة
##جيع
الطفل
اعط
لبعيد
تشي
##نزيرة
جمل
يبدل
حدى
نقتل
بثينة
هرس
لقب
حياتهم
نصو
##لتو
كتو
كتاف
اميمتي
شاعل
وجمعات
قسما
الزوينة
##ريحة
اخنوش
وتغوت
مالقيت
تخت
النفسية
##30
##غمة
لابد
##بيك
الفيسبوك
تلبسي
نلقاو
ماط
وغات
##et
تيقول
نواره
مايكل
لفين
الاخلاق
العقلية
playlist
فجو
ضاحك
تدوز
سهل
##باي
محاس
الريف
ضاير
##صلاح
غنجي
سوى
21
مدوز
شفار
بكات
الاحداث
حورية
لتما
حالها
عبدال
كليت
قطر
ﻭﺍ
نتاليا
الخص
اسعد
كايح
تجرب
##صيفط
القلوب
مبان
عقلتي
النوم
صلات
تحطات
التم
##ويات
فضلا
هني
##نوع
القدم
##سمعش
فخاضها
شتك
مكر
نرد
بصب
عسل
الحديث
بالمو
اعلى
الزوجة
##افقين
سلمت
كنشوفو
كيكونو
بالدار
العثماني
حملة
بعضنا
دالع
زدت
غارقة
قهر
لوس
كانبغيك
البركة
ودع
اطار
العبد
كبرتي
واكثر
طالون
##بادلو
top
##ai
##لاكو
والوا
العالي
الوس
تصلي
ارجع
بوم
رام
صواب
هدو
سياد
مايكون
ضرني
اعصابو
رع
غاض
كيكمي
سيلف
كينين
ردو
##شوش
##ran
منظر
الجر
الجهل
##صيحة
يحفظها
تليفونها
قبط
فالحيط
لعابة
##ملش
##بحث
وماع
تزوجتي
##باتو
تعلق
كايخ
تنق
الفيس
##قبلو
هاهوا
نسيم
##رجعي
عمرات
##وصي
البيسي
واليديها
رما
لعنقها
الراجا
يالا
ملقات
الهواء
##ومين
مجال
##واجب
يقولها
خشاها
قدات
امان
ونزيد
مراه
##خرتها
وتوجه
ره
غارق
عيطو
مستقبل
طالقة
طافي
لبكا
مقرب
منف
عما
لوز
##قيلة
لدابا
الظلام
يرزقكم
بترد
فوت
دالك
قتلني
كفو
مكتاب
قريبا
ملو
تسال
حياتنا
الاشياء
الكونط
##قتلني
سخفانة
اغلبية
##رور
بتوفيق
الوجع
##نگ
##عيو
لحتى
##فتة
تلات
غاع
فباب
##رقص
لدارنا
##que
##انسور
لعد
##فهام
عصبي
قولها
##🇲🇦🇲🇦🇲🇦🇲🇦
ضورات
بيل
المسخ
متسوق
وكلسات
سهو
نلقاك
طلقت
نبينا
صاحبتك
صو
واها
البوص
وتست
التد
شرجم
كايكون
باسى
الثق
ميرال
راش
تحشم
الخلا
دليلة
ابطال
التحتية
اپ
##روط
البوليسي
مرام
باباه
ضربني
وجدو
الشمال
##لتنا
مختلفة
##بابة
تزوجات
بوه
واعد
##سرعة
بديعة
كيبغيها
ذنب
##ولهم
##ورد
تمشى
تاهيا
التخربيق
طلي
لوسط
##صوت
##یک
##سيتي
كنعرفو
دروك
ناكلو
يخلص
ايس
ويقول
القايد
الذهب
##سكسو
تهرس
مهاب
انح
وتكات
شنوا
فجنب
فطموبيل
بلغوات
حذ
نلعب
##om
##لاج
وجدت
كايجي
##وليو
كدوب
ميدير
الينا
##تيقة
##امج
معاد
##وصلو
رافا
امت
##كلها
الجرس
لحب
ماتح
وسخ
الغريب
لصالة
وجلسو
حزينة
تافق
عامة
تقابل
##شن
كانبغي
يديهم
ساعا
مضرو
تحرق
الغير
تركي
حدها
المصيبة
كلسو
بقلة
ولادهم
فبعضياتهم
لگ
لمطار
اصعب
فنفسها
بمش
تاص
##طوها
عمها
ماكياج
on
شيخ
##لقاش
مقطو
مابقيت
كومي
فبلاد
الجم
فهمات
بطريق
مخنوق
توني
واقعة
فجهة
##فكرو
##فايفو
شهيوات
خاوة
زيرو
فدي
واط
كتموت
الحو
بطبيعة
الايدي
مكمل
##ید
##وله
اخلاق
القديم
محترم
##شوب
خسرات
ضعف
فراشها
موفقة
##اكرة
السيارات
##غلي
الماعن
وحاول
الطابلة
##تراف
بياض
فالبلاصة
كالم
الرفي
##اهلو
فرحني
دموعك
وتعالى
دكتورة
ذق
فلان
##ديان
##راضي
طالق
دخلوا
جنون
العمارة
كيجيو
##نيكاتها
رحيم
ولدت
قبالتو
غفران
النش
عربية
ليت
فكها
طفلة
طحتي
كرك
##جت
##🏻♀
اسامة
فالبي
الاعلى
فصباح
فالكحل
سبي
##سمها
##غف
ومشى
##شوه
جاوبها
الخلق
as
##فتها
بلقيس
تلاقيت
جبر
شنق
ياو
البز
بشحال
ادعو
اصبحت
روسيا
ومص
الصي
وبان
##بانية
الامارات
واصلة
تبسمت
مبحوح
مطي
متابعة
ماكر
لانهم
##شد
كتلبس
الخطة
كاتن
افر
اقدر
نبعد
يتك
ونمشي
قلتلك
##تينيش
تعاودي
براهيم
شعبي
مخي
نورمال
فوجهي
مقادرش
اشياء
رانا
قوتها
##واش
##سارة
##خلصو
##هيلا
تغني
et
كريس
الحص
وقربات
برى
كيحيد
قاليها
جاوبيني
مفتوح
ماباغاش
مطل
عرفتش
##قلش
نهبط
لافاك
un
حدي
##بطة
والث
هيلين
يرحمه
مزين
ليمن
بنين
##تحانات
واتساب
حدود
##راب
اولى
كاينش
طلبي
فعي
##طون
كيحساب
مرفوع
يجبد
##داتي
كايتح
السحر
##طيلة
تبتي
مخلا
غاتجي
سوها
عاجل
##فيقو
سبور
مواضيع
##ظلم
##اسك
اكن
جدة
دوق
الحقد
##شوفي
مغطية
يشري
##بتة
بطء
دوخ
حنونة
تحلو
بصوتو
##فوه
التويت
##وعة
##عيد
ونح
فالان
بخطو
المستقبل
سومية
الحظ
السمية
بنف
راضي
قاري
##ارجي
##همنيش
##ربت
يعطينا
تيع
الكواف
شهادة
##زح
##وجع
التبر
مستغربة
بحاليلا
##جبوش
فلباب
اخوكم
##نعو
الموا
خليو
يطلب
بطيية
تاحاجة
غوات
وحنان
فلول
جريمة
حبة
سطل
##اوبو
متبكيش
نتح
ماعمر
لبلاصتو
##hi
عيالات
دولار
نبي
##ذها
ديالهوم
خليتها
الحفل
##فيات
سعادة
كالسين
ماعارفش
##درة
فوقت
يتخ
لاخرين
ناشط
اليف
وباغ
دواء
خلاتهم
نهال
bi
بدم
رقيق
المدام
##ولف
##نيطرة
بانه
جابك
يبانو
sp
رت
رجعنا
روبي
برح
##ol
##بياس
##رباي
مشاكيل
زوجي
وسعات
افهم
##مكان
maroc
##سون
##دخلو
##دوم
السان
ونعس
الكوك
نقاش
اجر
الوحدة
ب2
##شاي
واضحة
هدية
##تيف
##قيص
كتسناه
طلبو
فالتلف
باج
الفلس
تحم
بالاخ
الزب
وجلست
ﻣﺎ
##وسع
مجاتش
##قدروش
المعلومة
سدي
الظروف
##امك
كيموت
السين
وهمس
فكلشي
aj
ترى
كاش
##بعة
##املاش
نحل
العدول
##هرك
##اجم
##ميمة
كيقلبو
سادة
فالول
وحم
تشحن
صونات
غني
##ow
وصلني
سريعة
##طقو
##لاين
علاياش
##سواش
قاطعاتو
ربعات
راص
##رحات
ويجعل
طابلة
##تاذر
هضرتك
كتشرب
دقان
سلمو
طرق
الخاوي
❤❤
##على
كيبغيك
الدقة
فرع
مكنعرف
وضارت
لبعضي
كنعت
فعايل
شافتهم
خوتنا
محطوطة
##ثبت
وتغ
##اركس
مكنتيش
كتشوفي
باص
##كدب
منور
فيديوات
تراجع
تعجبني
يكت
##ﻳﺎ
الوزير
يشفي
شاءاله
الطبي
خالتها
يطير
قبلو
جارة
##ربا
مواقع
تلت
##جاجة
السبع
نوعا
لخوت
عينك
الاجواء
شريت
بدوك
##یا
##ذلك
اشقر
##كساو
الضغط
النظرة
فضيلة
جنس
##كلس
نتق
تشهق
خلاوها
حبيبتو
فالمكتب
مكون
اخلي
متقدرش
تشربي
اهيء
ابتسامتها
خينا
لطوموبيل
السح
متقول
احسان
فدماغ
الكرش
الاصدقاء
مطولا
سرعة
كدا
يوتوب
##اجدي
احبي
##فوطة
##اميجة
جهنم
وذنيها
رمات
##جز
كتدور
مساعدة
ميزان
##وزو
كونط
رافايل
الرحمة
معص
متلا
##بوسو
##اهات
الشركات
فقتي
سبعة
ماعندكش
الروينة
تدي
عاب
كليا
##كينة
##60
كيتو
نعل
وكاع
ساليتي
يخص
معاي
القاء
الصر
اسيلة
هازها
طاري
قلع
نفض
يكم
كلم
معرفش
يرض
##ليتني
فيسبوك
وتص
تحن
تيكون
##ريلا
لفمها
حمارو
اسمه
se
ضم
الكس
مصاب
سمعتو
متوق
لراسي
هاش
كترت
رجلين
الجنون
يتف
كوبل
خدمتها
دمر
نبر
هءهء
##كلو
##رفزة
ايجي
حمرا
##ter
##ياطة
يحسن
المعت
وجاب
خليتيني
لخرين
وغان
بالخوف
بروج
المسي
وكانو
لايف
يخليه
عجباتك
ماعرفاتش
##حركش
وقفي
الفانز
وبنت
وبقى
ريهام
##بعدو
سكتو
ماعرفش
الدعوة
مسيرة
بايجاب
غسلت
وجبدات
بظ
اخليك
لحساب
##سومة
جلنار
##ماش
الميت
تيقي
وهدا
يمسخك
كدخل
##if
تعب
وبدون
امازي
همسات
كنبغيه
عه
ودنيه
توصلي
bou
موجه
فرحوني
زياش
ادريس
المجال
وكسيرا
##نفخ
##خدمو
كنجري
الساروت
تهناي
##ana
يهديكم
تها
بيهوم
فاتح
##كيم
الجدة
لعجب
##صلها
##ريبي
وداد
جهدو
تفهمي
مدرت
كيه
##اوطها
فالابيض
##لهت
بولي
خذا
##الع
الملح
الحومة
##طوطو
##جبدو
بلما
المشاكيل
وعندو
كياكلو
مبد
ينف
تالف
الادارة
سامح
##ميسارية
تيشورط
يصبرك
فنا
ومبغ
ولاقوة
الزوين
صغيورة
استف
خرين
ونق
عيونو
عطاهم
الاخرة
الموظ
ترخات
عاطياه
فالوطو
يقولي
مكناس
اربع
ترف
بالشفاء
##جيبة
مبغيتيش
يسرا
كتشبه
يضحكو
##زاق
فالما
الخطبة
تنفسات
وني
##بخ
توام
ودرت
معز
تمام
طالعين
سهیله
فنانة
تلم
ثانيا
جارها
ولقات
تحتو
مبتس
نحاول
زيف
فمرة
الشكلاط
مسخوط
خلى
##احل
وشادة
هدرت
يصلح
كتضرب
كاتف
##ذيب
لمستو
خوا
##كد
##كيش
ومج
نتخ
صفرة
نايض
وصحبه
##بسة
##تياط
موراهم
النظام
فبعض
يهدينا
نوي
كيضور
البطل
تفطري
جيش
كيتم
روحو
لطريق
طرطق
##زعزع
فرو
القاضي
مقل
وغدا
##اويلي
هءهءهء
بالامان
خا
غاط
لبنان
##قوم
ماتقول
سيك
مرحلة
السوارت
اليازيد
##ايفة
شافهم
بلاطو
قفز
حباب
رطب
##طلش
متبعها
##ظمة
##زيدو
هاكداك
اكرم
لاه
السج
سرعان
##صاصة
##املو
فالقلب
فالراس
##تيهش
شا
فاج
كرها
مدمعين
مكانها
واليديك
##نوعة
ولاش
تمتم
طمو
##وزي
يشرب
حادرة
سرق
طاجين
كلش
الفقيه
يجاوب
فالحياة
عاينيه
تبدلات
شيرات
##نطي
كيدق
وماما
##خليهاش
عمرنا
##oute
مادخل
لسو
معكم
ماضي
الفعل
ساكنين
يتحكم
فالطبلة
الداخلية
الحولي
العطلة
شهيدة
وبغا
سلمي
غاير
##ڤي
نتفاهمو
كايدوي
لدارها
بناقص
حصد
نگ
كايدور
مجهود
ben
st
حاك
هول
هولاكو
لموضوع
##امت
##اهدات
##اجية
بالقلب
شابة
##خس
بلون
وغم
الاشخاص
كتنفس
متر
احياتي
بمرة
عاجلا
تاواحد
وابت
لبالكون
شجع
كتولي
مبين
تنشوف
بقبلة
مامسوق
ترعد
كيقاد
سمحيليا
##الد
كلسي
تعاوني
##غريب
المعي
الخطا
فالدنيا
ايا
عظيم
بداكشي
تخدمي
قتلك
##طقي
##ايط
كانعرف
تصدق
باينين
لسانك
التلفازة
بمن
##ديات
ايلول
لبغ
مرضة
##جلسة
كيتسنى
هدوء
##رود
كايقلب
فينها
تواصل
مابقى
سمعتها
يجرها
ماعرفات
ابتاسمت
الحمقة
يربح
المول
والدين
##لمها
الخو
##هدرة
##ايرو
مانس
المقطع
فاهمة
بيتك
لحر
ينق
##علمو
هج
##بلات
##فيف
##زيدش
كتحسي
##لطف
صباع
لطابق
23
قابل
يبداو
##كتو
##فرنس
##يتوما
مهت
خاسر
طرح
##غز
##تياح
ويشافي
وكملات
شتا
##ليان
انثى
العلوي
بعفوية
الشكر
مسحي
تخبي
تزور
زوجها
الاقتص
فالقصر
ملت
لحياة
تخذ
جوري
باريس
خوتو
رحي
هبيلة
##سنة
الحرية
الزع
استع
يخليلك
دموعو
الماكياج
والديه
عندوا
لدري
##ضال
##zi
ومها
راهي
تيبان
رجعها
قتلتيني
سيلفادور
غرف
لهو
##ونين
كيلبس
وتكلم
كاتهضر
جبدو
نخليها
اديه
رعب
شجرة
##اهوم
سكران
وقتو
الرش
تاكدت
منفوخين
كسيوة
وندير
##كاك
منطقة
##روبات
مسدود
وصال
تزنك
العريس
وناري
اشخاص
ركز
##ara
العيبة
الدوخة
الفايسبوك
اعي
##ضنش
شافني
##هرات
مستعد
فلت
حفيد
##طاع
##ناقش
نتغداو
ونج
كايطلع
مبار
لوات
وليدي
الاحت
دوشت
فودنيها
غف
##طاش
السبيطار
##المين
يستحق
السعدية
الخليج
di
##خية
ماز
كايفكر
نجرب
ضوء
ومسح
وفعلا
حوراء
شط
هلا
##سها
##تياز
##ولكن
##ينيكس
##اريات
يسب
الاميرة
ضاحكين
الرسالة
الطبيعة
الغالي
عرفنا
تخليها
ضاحكة
امه
برشا
نحو
بالمغرب
فمراكش
غنا
##اجو
##عوب
كيتفكر
مقودة
ختنا
المناسب
##مته
صحافة
شغلي
التصويرة
اظن
##يسي
انكم
الحماق
مسالة
تسل
الحمداله
راغب
مقابلين
😍😘
##غفار
##ناعة
##فيش
بشعرها
لميمة
احفظك
وايل
##عطيك
محيد
بولترا
حفظه
ناك
فالبحر
اختى
ضحكي
تريد
##مومة
الخروج
عقلية
##قاء
##رجال
تعيا
الصاب
تفاصيل
يشفيها
موجودة
##اليس
مارس
خدمت
تابعة
##غبن
خوتك
##لما
المطعم
الفخ
اصيل
غتخرج
كلامه
الحشمة
##السة
كيجر
المرحلة
اندير
حقد
##مارة
كتلقا
نصايح
يهرب
يجلس
##مارات
ومعرف
رنيا
زكية
كتقلبي
مليح
يقولك
طونوبيل
نتزوجو
بمل
صع
غاين
##يق
##زه
البنية
حسين
##اميلا
كذاب
علمنا
##ربيع
نفطرو
نجيبها
غياث
سطح
##تركي
متيقاش
ناجحة
حنت
سبيل
ناص
وقولي
جاوبت
اعوذ
تاصل
والاس
اختر
##حلال
بفرح
شكلاط
بالانجليزية
ماحد
##نيات
الحنة
مربي
تمشا
كيتف
نهرب
باكية
الملكي
pro
نفيق
##دعي
وتلا
تيضحك
مابان
كتعوج
جاكيط
بصرامة
جسم
##اونا
كمية
لوقفة
شارف
##رجل
العصر
مشهور
الخامس
سيارتو
الندى
تدو
فمس
##قدم
##لاث
تنقز
ماكنتي
العدالة
تزيدي
##ck
يشدو
جيتو
##درا
الواد
وكلها
##كاب
لحقاش
تكونو
فالغرفة
حاني
كيخلع
كتحط
الاعب
يزن
##ربول
متص
وحطو
لعاب
تسمعي
بضبط
is
بفض
رفي
الحلو
##طوب
عاجبك
مفهمت
قطعو
بكي
بتش
نبوس
يلعن
##ابز
ديور
متعرف
الخاوية
يحكم
خاصكم
بغيتيها
##جابية
الاثناء
داتو
صوني
عتيقة
الاذ
فرمضان
الزر
ربك
شارك
العس
السنين
نتف
كايحاول
واسع
ضاروري
اخير
كلتوم
نوري
لخاطر
عطيها
نلعبو
قالب
برز
وشع
الانف
هارب
##اليد
الفضي
ودك
نطلق
الضمير
انفاسو
حلها
كاندير
الانو
قطعة
حاف
التغير
نفسية
سرطان
لبساتها
مسوول
2m
فالاو
##بعين
ومازال
فالعشية
ضهري
##man
##خلينيش
الشتاء
محامي
تيهضر
مجرم
دخلوها
##ort
زبي
❤❤❤
تقراي
واليوم
بالفقصة
التراب
لقاعة
بلاصت
ضحية
فالمع
وقتما
##سام
##شه
سكان
باراكة
دانيال
##افرو
كتسوط
اختكم
##بينش
الفردوس
نظراتو
خطة
##شوفها
وجهم
مسافر
غاديش
مدين
ارزق
الملكة
بوق
##خور
الصواب
مغرغ
##مانيا
##قتلك
المصرين
فالمراية
حكومة
##هلة
##ماغي
##اريف
يهضرو
زيارة
حنو
##ريع
كيجيب
##روق
##بوري
شاداها
خالتو
خديتي
تقيس
مناسب
لاين
##مرين
علامات
حواجبه
حبسات
الهدوء
##لوكة
فالفيديو
كنطلب
ومكي
كبور
حالا
لجو
وشوفي
##صاد
##تيهاش
الطاقة
##قراء
المختار
وركب
فالموضوع
صوتي
قدي
##فتو
الاركس
نتر
فشعرو
الاثنين
النقطة
حبك
١٠
ويك
الشوك
يعطيني
قمي
##كاني
الحلوى
الفرح
مكنت
يشافيه
قلتو
لمراية
##دعاء
سنبله
طعم
كايهضر
كاتغوت
##رقية
كيسحاب
سامية
كادور
وعطاها
##فزاز
ه😂
##ضيو
##هبطو
لقاهم
حصدتم
خرب
##افه
##عيبية
يحق
اتع
ماكينش
شريرة
تعليقات
فينو
##عملو
بغيتيه
يتحرك
فذروه
مفاجاة
فاو
##فط
##الفة
هيك
تديري
نعيشو
هربت
تطوان
kh
بوت
##وفل
اواه
لمول
الوليدات
بحرارة
السفلية
##هلك
فالر
ودنو
بشك
طيط
فايدو
البرهوش
ماعندهاش
ربط
ندو
نلقى
البسة
اسيا
لكبيرة
مالق
لصدرها
غوز
كوت
كانحس
تعالي
##اليان
بتع
الرياضية
روينة
ثو
##ادرة
جلسة
سولتك
خسرت
زايدون
جلاب
شكات
نوم
متقوليش
بلاك
##حيكة
يسلمك
نهبطو
عاجبو
##حتاجش
بادي
معطل
##ربحو
مكس
##وحدة
لحليب
وطلعو
العل
سيل
جسمو
تطل
كطير
##اثر
##طوري
كاتجي
جوكر
سهلة
fati
تلوح
بصفة
كيدخلو
غوباش
واكل
منطق
##تسام
الفردي
يمكنش
بضهر
ترام
عاهرة
##جارة
##الثة
هود
اشحلي
عارفاها
خصرو
تغداو
قناه
بالخصوص
##اءات
جيكساو
لشخص
بوليسي
ضري
غتش
هى
##لاع
كتنت
تشوفيه
جاوبي
تلفازة
##كيطة
كاتعرف
تيك
ماغادي
##ari
كنحلم
عكر
نتحرك
محاولة
نشفات
##هزاء
فالحبس
كيترعد
ملقيت
##طمة
غيدير
هوبا
عطيت
##طرال
شرع
يصبح
كتقرب
ماوقع
تابعني
واصبح
##👍🏻👍🏻
جور
ظروف
كسكسو
##ريال
يدوم
العمليات
كنتسناك
تمتمات
ارى
الحضور
براكا
الانجليزية
تحتاج
ملكي
خبز
لذي
##ci
العدو
ساكها
التصويت
cu
اثار
##حام
##ربين
كنخاف
موافق
ماخص
مقود
ماقادراش
فالكرسي
هيثم
مقارنة
كذب
حقيق
خز
فالفراش
متفق
اتف
تخن
##بينو
##تيشورت
فاطنة
##نجاح
تاهوا
##لش
##ازم
نزلها
تشدو
فحنكو
يشوفك
##سمو
##ريكو
كيطلب
غانمشيو
تعلمت
السجن
باشتراك
لماكلة
فحوايجها
دريس
سعو
قابلة
الجوج
مسلمة
ماتخافش
بقاش
خايبين
تلاقا
كنديرو
بكا
دافي
كمان
##بياء
المحت
##هوي
بقلق
نفسيا
الامان
##كسر
مفيدة
والدموع
غنديرو
يلبس
ديب
فالتيليفون
بحنية
فوطو
لجنة
نتمناو
##الال
الحمو
مشارك
ماتشات
ودني
##صدتش
رتاحت
تندم
فلف
هعه
##ءة
وقر
##دراري
القت
وفمها
شدني
روعه
لبيتك
الخطاب
جربي
صوفي
علامة
باتجاه
ورجليها
لغي
هجر
كيبقاو
القفطان
##برت
وبابا
محسات
عقلت
الشعور
معمرني
عارض
##ونتي
كتدير
الحقيقية
بشدة
فايدها
##حا
##لقه
المتابعين
صورتها
النهاية
بوي
##😍😘
لبسها
متابعين
تكلف
الانترنت
خبارك
لاوي
تنز
تنسا
تحركو
الماتشات
خيط
##ولنا
العض
البح
عافك
الميساج
تكو
تمنى
هكر
##افا
والتق
الحروف
بحركة
اكتب
معلومة
كيمص
##موك
وتج
تشه
بوحد
متشرفين
##كنة
قم
qu
##op
##ذاك
كنمشي
سيمان
كتعرفو
كيزيدو
بالاعصاب
##ارم
##قيها
ميكون
بحق
الاساتذة
الاعت
##سلو
وتقلب
الكور
واتمنى
##اخرة
نقاد
نجيو
رسمي
##طقت
##لاطو
وحدي
لاكارط
##اينش
##طوار
مالهم
بدلو
##سمحش
مطول
ماجاوب
ناخدو
لرض
##راها
نعطيه
ودارو
تخطف
تقادات
##غاربة
كلست
الصغر
فالطموبيل
دخلة
والبنات
ومابغ
افرحك
مغرغرين
##غيا
الساجدي
تختار
فخطرة
##عاش
##صبح
##80
##التها
ديلمك
##اهب
الحديد
طواليط
الانتخابات
اطر
بهي
ايما
السلط
وطاح
##كاند
ساير
عرب
##تيقش
##املها
##وجو
ونمشيو
تسنى
متيق
الاسلامية
لوخرين
منهوم
##كنت
وتكا
الجنب
كيدورو
ويفرحك
##ﻴﺎ
كيخرجو
##ياق
بهذا
ولادنا
كذوب
مراض
البشرية
قصدت
لني
##شعر
##عسو
كيطير
وبديت
بتخ
كالت
الاولاد
##ايو
##تيات
هيهي
حسنا
المشروع
همسة
قدرتي
شريفة
رونار
كنتسنى
fel
ضمن
طاهر
##ولار
كتنقز
اليوما
كايدوز
براد
بتصرف
ذكرى
قميجة
##ver
ديز
اليكس
بيكتر
وبنات
لعايلة
كيفك
تزوجو
ستيلو
ajoute
شركات
##عف
وجدة
الجسم
الصديق
محمود
مبقات
يحرق
مصدق
لغرف
نعرفك
فاقرب
شبعت
الاجتماعي
دزت
##se
##ريكة
##معن
مسابقة
لكنها
وفقك
واغ
لاحو
نعستي
فالشركة
المها
عطلة
مادرت
الحريرة
اتش
المور
##ندز
كنكرهك
بته
الاحوال
واحنا
تلاقات
محترف
ودايرة
فانا
##خها
##اطنين
وسروال
مستقب
اريان
فالحقيقة
فازك
کت
##گة
مجهو
وعندها
يهديهم
غرغرو
نطلعو
غطاها
تيدير
لرو
##لن
ديسك
امانة
الكول
اعداء
اغلى
بالجنب
دفعات
مكرهش
المفروض
##الما
ديس
العالمي
الطلب
وكين
لداركم
ميريام
امة
صدقات
فلبيت
جاوباتو
متافقين
##اطف
مردودة
فصالون
جزاكم
اشتركوا
فصل
##اظ
اسف
محسو
لحبيبة
استاد
##تاذ
مغوبش
كيبريو
دس
##ﻴﺮ
ديم
بنرفزة
##ضحكش
الابطال
فمهم
صديقة
محتاجين
الوقيتة
جيني
غرق
كوب
لض
##كتاب
بنيتة
##غيل
لقناتي
المسلم
تاهوما
الازمة
البداية
ضلام
##ba
##اوبها
فالبر
تحمق
وريني
وكلام
صاحبة
بايدو
ريحتك
ماخرج
حاضية
البرا
مجاش
توصي
عطيتك
تابعو
ويدير
sa
كذا
وطو
جبدها
كثار
اخواتي
بفضل
قود
وافق
##صون
##هير
##ﺎﺩ
##mp
##نانو
نصيب
##طونة
##ريدات
اخذ
فالفيلا
لانا
😂😭
اعش
وقتاش
par
دادا
##تيلو
##احر
بالنعاس
##كلمو
تنفع
لبيسي
كارثة
صحابي
ونزلو
مركزة
تكن
جهل
##ظام
##افقو
المذ
كتل
##وفا
وتهبط
عادتها
مجتمع
##بيبان
ومعند
بالبو
وتمات
ويغفر
##اطل
تقص
متاز
الطرف
##تاغ
نشاله
##واله
فنهار
مافيهش
فودنها
##زام
##زون
لماتش
كاتق
باكي
فالناس
الجانب
بدورو
سعداتك
عافية
فجنابها
حرية
##احبة
بالبي
الربح
صابرة
مقادراش
نجبد
الحسيمة
وجيت
الدفاع
لمها
##مانية
قتلة
يغفر
وطلعت
بارتباك
حصة
##🇮🇶
العمو
لعق
لوطيل
بعيدا
كاميرا
معن
اتمشي
##عجبنيش
عاطية
العواشر
ابيل
فابي
كلاص
بغاك
تحكي
الصحيح
الامير
العميد
الظلم
فرك
يضيع
كتدوي
##تويت
الحراس
الفاض
امتحان
وبينك
##اريج
فطرو
ملح
لعروسة
شوت
القلاوي
##اظر
المدر
وعايل
تبعاتها
عاقدة
الاهتمام
##افدو
##شيه
وجاوب
اصد
اكس
ياكلو
الشرطي
تبدلو
بالدارجة
مبتسمة
##mi
##ﻧﺎ
##رسم
ماخلا
رفقة
بالمعقول
شمكار
فدو
لماما
لحمي
صداق
الطبقة
اذهب
النشاط
##ليمة
مصدر
خايفين
الكلينيك
المنش
العودة
موراك
وقعت
وطاحت
وتحط
الانسانية
لخص
##خلة
الطايرة
ضحكتها
سخن
المواضيع
##لر
السباب
تجيك
عروة
بالاشتراك
لعصا
يحاول
##فكرش
لصق
زفرات
تجاوبو
ne
جامي
اساط
فعلها
مفقو
مهبط
يبوسها
تافقنا
ليد
##خليكش
بدورها
عينه
شربت
الشعبي
##درت
مواطن
المسلسل
بالمق
لاوطيل
##اكه
##شيتي
##احتك
وقلبو
الرجلين
صدره
تعصبات
تسي
كاف
كنقرا
رجولية
حوايجهم
طريقك
التويتر
ويرحم
ذراعها
سبرديلة
##وخ
##واحد
اياه
سمحو
كونجي
لفت
غنبقا
ونف
##oun
خاو
##درك
اشار
##حسش
الرجا
الطبخ
القيمة
نديو
##جابة
المرت
ماتبكيش
وشوية
يرحمك
con
##ماعات
البوز
بيسان
التالق
وشمال
نشدو
##فرجو
ومحمد
حنيكاتها
هاو
##ماقو
##توحش
شافك
خلاك
الثالث
احتمال
id
##ﺪﺍ
فالكل
السد
وجهة
لكلاب
مثلك
جهتها
فارس
فجبهتها
الالوان
كيجمع
##ربش
التيران
الكبيدة
##ضيعو
يجعلها
لشفايفها
مخلطة
لنو
لمحل
ناضي
رحمه
كديرو
الطويل
اخواني
هاربة
##راف
الحض
فالجلسة
تعاير
تعبير
نتيق
مخربق
يقبل
نهارك
فالسقف
##طالب
ونزلت
##😭😂😭😂
گلت
##يتم
لاز
لعيد
الكاب
مابقاوش
صافية
كتهد
##درتي
متج
متعة
وحايلك
مرسومة
الرياضي
بكلمة
حسابك
ويسهل
القيامة
زعم
سولي
نهدرو
وبحال
برشل
انتما
راقية
##بيني
##قوت
راسوا
الواتساب
الاوراق
فقدت
##رقب
الاحلام
بنيتي
احفضك
الموض
فشل
كيبغيو
كسيدة
تقدمات
دروس
وظ
كنخ
##موزيل
##كتبو
وجوه
غيخرج
مجر
اجعل
بالهضرة
th
قنوات
##زاز
المريض
واخر
الصو
##املش
##سمعو
ويعاود
su
##طنا
##ناقي
مكانت
عرفتيها
افع
يفوت
##نتيم
ندور
جردة
ضمير
##بسم
##سيها
تحلات
##دهاش
اجد
منهنا
سهات
##حيه
يسلم
ديكور
اا
##ارتي
ميلات
النك
وغط
##دخلش
بهاذ
الاتحاد
بظهر
دلع
ذو
##لوط
وحيت
##ضيه
مابقيتيش
يقت
دورت
فجنبها
الوالد
نضاضر
بنفسو
مناسبة
عيتي
وهبطو
غانجي
حلقات
يخط
قاصد
كيهدرو
كايديرو
مجلس
خليتك
فخدها
بالاحرى
سنسلة
فلاش
قوم
##غربي
تعود
يشرح
كيحمق
مسوولية
ظلام
##ﺎﺕ
##رودة
الخدامات
##فسر
##خليهش
مخلية
تليفونو
خوتها
الماريو
##دومة
مكتوبة
باهم
تخشا
الانسة
##اونها
فالحمام
مخلياه
تعاونو
الاستاذة
دمي
فنو
ﻣﻦ
كيولي
##اقين
فالبيض
حسو
وراني
حشوما
مخلط
كتبات
محد
يعمرها
عطاو
غنقول
##كسل
قراو
البراني
كوزينة
العشق
ويضحك
يشعر
بخاط
وزين
التلفزة
عبدالرح
الجريمة
اصابع
وخلاص
لغرفتها
عاينيها
الدخان
وزي
گلس
اليوتي
مشر
لعنة
ميستر
جاوبو
تدري
خطيب
داه
صحر
صنع
يذ
##خذ
##هبة
الحج
ايديك
لباك
تبعي
وعجب
نزيدو
ديكشي
##شومة
دوزنا
حقيقية
ماص
القميجة
شعلو
يدوزو
##بته
باغيني
بوحدنا
##لايكة
قبالت
دموعي
feling
ثقيلة
اعطي
الاخطاء
حمارة
سعدية
الفيديوات
خافتة
الحسنية
بوزبال
لزواج
ياج
##باش
##يناه
كيو
ومنها
##ليكوم
##ation
شرات
ملولي
##za
##oui
تطبيق
##♥♥♥♥
##اپ
الهربة
ايلي
##رحبا
الصند
بحبك
لطبلة
بضيق
##ستاه
وتفرح
لعيبة
يخد
فالصالة
so
يغير
##وزان
سولو
كاو
##ملها
##ياقة
البطي
الصغي
تشعل
بخبث
كتقطع
عنقتها
نطيح
وضور
بداي
لجناح
تمشيو
وانشاء
البالكون
صمد
##فيقها
لكارد
وفهم
صدقت
المخدرات
صغيور
استاذة
حوار
لقو
يربي
##دره
السرجم
##قيب
فالمق
جامدة
التفاصيل
نيتو
الحين
ولفت
قالوا
ماعط
برجلو
كيتفرجو
وطلقات
##مطة
الديك
##تياب
حتی
بانلي
تفرجو
فاول
ميغ
فقير
المواطن
تفكيرها
الوصفات
صال
ونوض
معمري
##يناها
تعطف
وحب
صوته
لاخرى
كلاو
تقوليها
تريكة
##ذبة
كنص
بدهشة
عضها
الصحه
##نصرية
يتحل
سنمار
الحشيش
فالاح
وتبعو
الابت
تلاقاو
قاسح
بهضر
##ايلو
##ورش
يحضر
اعمري
دوشي
سامبل
تعصبت
حفل
شام
شريك
كانقول
ابناء
كيتحرك
حري
لى
المكل
البعد
وتكل
وتعرف
بلادو
يحفضكم
العداب
قلوبنا
نكر
##زيرة
لاصال
الكبر
خرجوا
توض
رحمان
الحمارة
كيدايرة
##افلة
دخلك
خيرك
فالمرايا
سروالو
ar
شادي
##يريا
##ضربو
##حرم
تكى
فملامح
كحلين
##لاميذ
الخطوة
je
حجر
سالم
موم
نبيلة
لدارك
واحسن
حلويات
متنساش
بوشعيب
##فيو
الشجرة
الطرق
تكول
فلحظة
شمي
ضبر
##نينا
##ناهم
##اكين
ماغي
اوطيل
بحالكم
##صفق
ونعسات
الملابس
لسيارة
نبدلو
🙏🏻
##ﻴﻬﺎ
##ظل
الحامض
تحطي
الجامع
##لقت
##مارس
جناب
بشرتها
نمرتو
قاتل
moha
الفضول
fa
نولد
الكتب
ومور
سمعتيني
رحاب
زل
نبان
يسي
##ابية
دياله
المخلو
باليد
تحضر
مبدل
بسلام
مثو
بكلشي
شويه
وضح
وامي
##ولوج
كلتي
ويست
غتبقاي
لابي
قالتلي
فجميع
حطهم
بنتنا
عجبتيني
باركا
مونية
صندالة
te
مبقاوش
##وشو
كيتنهد
تغسل
واعي
صندوق
فابيان
##عور
##رز
##70
ماشفت
##طوك
اهيا
الزاهية
فدقة
وزارة
جرني
التواضع
شنايفو
جينز
نبات
حيط
فالمست
دايزين
الجزيرة
##صلات
##dh
##ap
معارفة
##لمى
خصهم
كتحم
دايزة
وهادا
بشرط
القياس
مفتوحة
تعابير
رشات
طون
##كنو
##نوي
عنديش
##طلعو
صاعر
وجاي
العالمية
عزاز
##ناقشو
حلا
##طه
والاع
بالصد
ويمكن
شافوه
كرشك
كتحلم
ديريه
التعاليق
خدمي
سافر
فبر
##ul
كيوصل
البوك
الفران
des
تانتا
دلك
##طانية
ماتن
كنتفكر
باسو
عصابة
هبل
##40
ماير
البوط
وهاز
تلقاها
اونف
نيتها
وقيلة
احاسيس
##فرش
يشترك
فقلب
غايدير
فالقهوة
كليب
نخلص
##اجهة
تيح
اتمنا
فقر
خذات
##🇩🇿🇩🇿🇩🇿🇩🇿
مطلقة
شمو
كتوجد
اليمن
اوي
بعين
اسمك
##طوبة
فاشلة
فهمتك
كتخم
المستحيل
واز
##وكم
##تاف
##صورو
متى
تسطيتي
نسخة
المشكيل
التحدي
جناح
مجبدة
موشكيل
##ولدي
##راين
ويخرج
الدقيقة
لقحاب
غنش
وكتر
كارز
قبلي
تقيلة
##كرهاتش
##19
بالكم
نته
الجسد
ونهضرو
##اريز
مقر
مثيرة
فكرات
تموتي
sal
اوصل
لحية
الزعيم
ماعليش
غاتخرج
كينزل
ماحسات
الحيوانات
شارع
نضرة
ليم
اخطر
يخاف
فطب
كتعطي
فعوين
##قار
ليغ
مند
##ربقي
البصلة
##نوه
بنضرات
الكاف
مامات
بترجي
خدمات
##ميسير
بامتياز
فتويتر
تواضع
شبر
طن
##كيو
مساف
لداري
معرفات
حاطين
##مناو
##لحق
البلد
موفق
##سيس
##خلط
لحض
مليت
واقفا
ترخ
ريتاج
تطور
جهاز
لتر
هضرو
😂hashtag
ويخ
فاتو
##ڤو
وتلاح
النية
وراسها
خلود
وحرك
تيس
الاخضر
نفع
##فقين
بعوين
##كلك
ويسر
بحقد
مستر
كتحيد
العسكر
وباينة
لمراة
محج
مزاد
ماقال
اسرار
بنفسها
تفضلو
امثالك
كينة
معاش
##عيك
تبدلي
##شار
والشي
مجمع
يخت
السماحة
لوكاس
ناجح
##لاقي
القادر
واشنو
عطيتو
sou
##بيد
كتار
وتبارك
تبقاو
يحر
الرم
باسف
فايسبوك
وتوجهات
ترفع
يلقاو
##ذبو
##توجات
العامة
##وقفها
##ضرورة
ay
الة
##اربو
تعطيها
الدكتورة
##اليل
سياسة
يخدمو
نتعشاو
كاديري
تكملي
عليكي
##زيمة
بانلها
غايب
هضرنا
##جاوبو
ندويو
مباراة
##رحلة
الخز
اعجب
الامري
التقلي
ارق
ياودي
##تيار
##احية
##اوت
ماتحس
مولانا
الدوار
جزاء
لراج
no
##توج
عادتو
بابي
وطنا
اكتش
قفزت
التجربة
حجرة
كيدوزو
الموم
التحاليل
##قولة
فشهر
لمستشفى
داء
نضرات
##👏🏻
الطيب
##يرين
فالبلاد
بياس
تبات
كيعاود
and
ذالك
سوتي
شاري
ضيف
طع
لوا
##اريا
العناق
الشال
##اريش
زعزع
مورايا
##تركيا
بلاصتهم
كتعجبيني
كضحكي
وطي
##نينة
##لقي
فاشل
خلاتني
حبسو
دوزيم
حاشا
ضلم
غطات
##عوا
##عامل
الهاش
مشع
ومهند
الكافي
مفيد
##قلال
يخسر
معرفاتش
جسد
تاخذ
حولي
كينا
##سه
##ميزة
تسم
رايحة
ودازت
البلدي
فوزية
سنتيم
وريح
يلقى
منيتك
حتاج
البرت
##الدين
##ريقي
الجلابة
##سوتها
الامانة
قرص
الاغتصاب
ناشطة
مباغاش
##شب
كايست
وساك
تسمعو
صدري
الاحاسيس
الذل
الضلام
صعر
يما
##دايي
كايحس
نسكت
عياو
غنرجع
رحلة
اديك
ضربي
يلقا
فالطوموبيل
بنينة
يتقبل
بتاسمت
فلارض
لقيتيني
ويشفي
بتي
قوس
##کی
ليع
ايفون
##خليو
تخبط
استغل
حكات
##ارغ
فيس
كيطيح
كنتش
ميقدرش
نساه
باعلى
السخانة
لاحظت
البلاطو
غتولي
yas
نربي
ودم
##جاح
معطلة
ديالوا
كيسان
تبا
لحبيب
استغ
فالجنب
الالعاب
طريقي
ياتي
##شاه
كيخص
كيمشيو
ولخ
رجلك
رفعات
حبها
##تيلة
بالظ
البينوار
محترمة
يتج
نقد
يطلعو
ختاري
تاخدي
تالم
##قاب
القبر
الخايبة
وعلم
الاخوة
تعرفت
شايف
طاقة
الوف
الرسمية
كيقطر
ينزلو
بهار
بريس
كايبوس
وعلي
لقمان
##حشمة
متابعتك
دينيس
نتفرجو
##هضري
ولن
فعمرك
الامتحان
خداها
خنا
##قدو
امس
كاتر
ماتشوف
بقدر
موالف
تصوني
##مضاني
لغادي
بطولة
##كشف
رغبة
اتصالات
fi
##باس
##کن
معمرو
مبال
بجرية
كراميلا
تدعي
ماجاو
لقاوها
##يتا
##اطين
ابني
كتشوفيه
شخصيتو
كتشطح
الرسمي
لدو
ويدو
يان
تحلم
##لكة
##ani
عاليا
العروبية
ويسعد
يبر
وقدام
وتقاد
تحطو
تعني
وشدو
مقلوبة
بحساب
بالجوع
كتخربق
هاذيك
##12
##ﺮﺍ
##ريسي
فالبال
نعاودو
سيم
غنكون
كيلمعو
اطب
##ادك
##ايتها
كتطلع
نتشا
##tar
##متة
سوري
شروط
اتر
تحاليل
جولي
##گي
##اودات
ويبعد
انتب
تهزو
الملكية
تافه
مهد
يقيس
وتلفت
##لاتهم
مولاها
تمناه
ياخدو
الادب
تندير
ساروت
##سري
كيتك
##اجعة
فالون
وتحت
متشوف
وبالت
تيقولو
بكاء
الموطور
نخليكم
هذيك
الدريات
فاضمة
فاف
##اتر
كيعت
فالث
ونحن
تقبلي
بشنو
اجيب
اراد
قتليك
كندوي
اوراق
fil
##حتو
##خان
##فلي
##ظور
الربيع
الموص
##دودين
البحث
رجوع
مبتسم
تشاف
##حالة
تحسي
تحميها
اسباب
لكنه
مخدم
وغاي
##قران
عجباتو
سخفات
جدية
العموم
##ارفو
نخط
منفوخ
قافزة
غزل
##لاحة
معنقة
##رفو
تسوق
لهاذ
bea
اردت
gam
##تن
##اتب
ومالك
لحدا
ماتعرف
سمطة
مدور
دوار
نخليه
النفاق
بلايص
ذات
قنان
بيسي
الكوس
حدانا
سيفتها
رقص
تابوناو
بوبكر
طمن
كبد
هش
##ظرة
##هاي
اسمح
وكذلك
مدى
##قتهم
سرطات
لابسا
فوجهك
تكره
حارس
##تيب
##همو
الصالة
ونشوفو
فخدم
فلخ
كتغني
بركات
لطف
ملع
##kh
##ارعة
ليكي
متقل
لبعضياتكم
شمل
##لغ
انذار
نتفكر
فوالو
قريتي
ملاين
ليفربول
بوليس
هجوم
يصدق
##وطة
كتبين
الجناح
بصبعها
فعز
ازمر
قوليا
نخسر
المجموعة
فاخيته
ماكنتيش
##تاب
ماتس
ركان
التيتيز
يصحاب
الجزاءر
##طاب
##جابي
انفس
وقلبي
الخضرة
بالعقل
##حشمش
فجيابو
المراق
النسا
تهلاو
يجيك
بطمة
تسمعات
لوحدة
##ذف
##wa
##انتي
##بيات
البقية
اسوء
الكود
وكثر
الفراق
##فهمو
جلا
سامر
كبي
انستغرام
بغاتو
ويصبر
الشغل
##فسة
##ment
##قس
لحس
فينكم
وخدا
لوسي
نقاط
##قتلها
المنضر
داخلها
بنعاس
كندا
موجد
##نعة
##مشة
##اكلي
##ديجة
##وتش
تنقول
تنشر
كيتقطع
بمناسبة
##ent
اليدين
وضحكات
كتجيني
ترامب
لهي
##اربه
رجليا
تصريح
باقية
وناضو
البيوت
كاسو
تاكلون
بالرغم
دقيق
الدليل
عنهم
تيساع
لحمو
نسمعو
تشبه
بحسرة
فكرني
واليديه
مكلخة
يهودي
تمد
##قتك
##اوبك
##لودي
وتز
وتضحك
لمنت
اعماق
مثير
حشم
ماسخ
##حتها
كتفيق
اناري
نسيتو
الاوطو
الطيبة
لجيهت
فسيح
شين
غفات
##بى
##اءلة
تهزات
يخبط
فنع
ادعي
كتعض
المحم
ناحيتها
رفعت
وعيط
##لی
##ضاع
##نوبيل
الخادمة
كاتقولي
بقر
##قدريش
المنطق
كتجيب
ومريم
كايقولو
تقفز
الطاب
مجروح
تخاص
##متل
التحية
محاول
##واغ
نجلسو
غايخرج
مفكر
مولفة
وانما
تصرفات
القوية
رخيصة
غاتولي
yt
هاج
لمام
داروها
وشك
نشاط
دفاع
رياضة
for
حقايق
##طبق
##عمر
الموج
فالام
البخ
السلعة
متكونش
ويمشي
لكارو
خطبة
صفرا
اطول
همو
##🤲🏻
وتد
الشم
لمجرد
مبقيتيش
##ضيف
عطى
يده
##قتيني
جهدي
نظام
الفنانة
بغيض
فضلكم
##ضير
نترات
##ومون
معرفة
مرتفع
شكلها
مطلعة
الشوميز
بوص
##ﺪﻳ
وبش
كايلعب
يدار
نحماق
لسطح
بفارغ
الضحية
اصدقاي
kar
رقيقة
صام
كيران
گلسات
##ضبط
الفوتو
متحم
تعالج
شافوها
الدل
مرس
نعطيها
غنخرج
كيتنفس
##قرار
##ارقام
تبرهيش
سرا
مجي
##وته
القتل
التمر
اتصل
وانتم
ماكايناش
لجيهتها
المسوول
امع
فكن
الجماعة
وشفت
مقب
نساها
بحوايج
لخاطري
تيليفوني
تلعبي
جلابتها
##شرين
##جال
##هزو
##ضين
وعمري
حسك
وسلام
فمكان
##زتها
##جتو
##اربي
الملامح
وكيضحك
قوليه
ماقادرش
كيرجفو
توتر
يامن
##ولت
لماريو
##نتا
تغرغ
صحابات
##نايي
رياضية
الحسد
قشع
تطيح
هنه
##نازة
##همك
كايصوني
##باغ
فرش
حدث
حطاتهم
##تيشورط
لكلمة
تحشمي
سفر
مارض
مرجان
بالمس
تفارق
تشطح
##متعة
كمشات
بعضياتكم
نزيدك
فغرفة
حمي
##ادري
لعز
لحنان
الراقي
يشت
فشنو
توحشتها
كيشبه
يتحمل
بيضين
mer
##كبر
كتخلع
##يدات
البرق
الوان
كرش
الارضية
المدن
يجازيكم
تصبحو
فنظرك
حا
سطاج
ودوك
ليسي
المار
الهجة
البير
الكحلة
كايق
ميزة
تساعد
بوحدة
فلون
تخرجو
الطوبيس
كنعرفك
150
افكارها
الياقوت
كتبو
بالماء
بعي
مشبك
##راث
##اليش
يعمر
##ويك
فعلو
##بدى
بكاها
كتعني
##ساليش
ضاربة
مضي
مارج
##ندها
##وفيل
راهو
##طيف
ميكونش
تصديق
ضحكتني
لمعلم
احترامي
##لص
##وحل
الطفلة
##ترول
##نسى
فكرتي
تفكيرو
تقود
موازين
بلق
ساري
##غري
##اشير
##ولينا
##ستن
متحس
لفخ
تالفة
المقدم
باستفهام
##adi
تكلمي
كنقسم
ذكريات
المان
كتيرة
انشوف
##يدك
وتزوج
وجوج
الخيط
تدفع
التوتر
فهادي
توجهو
مغمضين
هالي
##طاسة
اكليل
فعين
عطيتها
ضربك
الناف
حمراء
العيشة
احيانا
hi
فبل
هبال
##فوا
كتخلي
والتو
ولالا
تمثيل
تجرح
استسلم
##يتيش
غتبقا
قتلها
وتولي
ونعمة
فالغوز
يضغط
شب
لزنقة
##ماو
##اعت
العكر
بيوت
احتاج
غانكون
المحكمة
كنشوفك
كتباني
طموبيلتو
بعقلو
باطل
غرفتها
##cha
كنهدر
تحك
احلا
##بتهم
المشاهدة
يجيبها
ختارت
وتشهق
رجليهم
سبان
لڤ
مكرهاتش
انظار
كنكون
##لمح
مكيد
جيبها
سمعنا
غتع
حالو
نفطر
لشعب
فالسيارة
معمرك
##ينيو
براية
مكنعرفش
بحث
ينورك
##ضعاف
لاخرا
كتشم
مكلف
هاهوما
النصايح
ليبغ
نحيدو
الهوى
##وره
فالمش
متكون
الود
##سرط
تجيبو
طراف
بالغة
مدوح
حضنو
##alima
mor
دمك
شهو
كسر
العنف
ومدات
اشفي
##برع
كايد
لكازا
تكرف
فشلو
فساعة
مديرش
يضربها
زلي
##خه
ولاهيلا
##فيط
علاين
تنجح
راجعين
ركبها
سكيتش
عراقي
هلى
##غيش
الزرق
الاسعاف
شدلها
يخليهم
ذكي
##ادق
نوصي
عادة
فعمر
نجح
فالمح
كيضربو
الذهبي
صلا
عينا
##ذبي
منبعد
فالمن
##مونا
خليونا
كرز
سكار
لمرايا
تفرجي
الطبسيل
وحيدات
مله
##علي
##اده
منعس
##ياع
اشكال
##هرسو
##زوينة
جمعية
الايمان
تبعيني
كتنهد
الشفارة
##غت
##اقات
مفت
الفايس
مراقبها
26
تاط
جيدة
طاس
يضور
##سطة
البوم
وجرات
##طيش
حاجتها
شرط
بيتزا
بقة
الملي
انزل
لبلاكار
القريب
تقد
بدلع
##واية
بحرا
شدوه
تقوم
تكمشات
يرزقني
السلطة
جذ
مقي
##فرو
##احمين
التحر
تاثر
تلفات
لبساتو
وتحرك
وديال
ابتسامتو
لوجهو
سنطرال
##وبي
##سلين
##اعرة
تحملي
غيوقع
فعنيها
معندناش
طبيعة
لرب
##ابعو
الحصة
فالاخ
ايوسف
متحرك
تحقيق
كاتي
عصا
الذنوب
درتيه
عروق
غسلي
اطلب
تديها
دبي
ماري
##طيارة
تنخص
ماتقدرش
كولهم
توحشنا
يكثر
واهيا
نتعلم
مجهدة
شق
وافت
يرفع
##حلم
بصوتها
كتسلت
متبعاه
وليداتي
المسخوط
mohamed
دوج
شبك
قدير
معلي
معقد
النض
عيشي
ماعرت
بتف
مفزو
واحلة
عاودو
##غسل
##اقا
البسي
الشرح
محيت
ماكانت
فطرف
الابداع
الفقراء
طبطب
نديها
هاري
##لاكس
لعمر
سيارات
جمالها
ومعاه
متواضعة
مباشر
يتعلم
بامو
مرفوعة
لدريسينغ
تار
شفي
صينية
##يي
العصبية
كلك
الشقة
ونقول
حسناتك
تفار
الغرض
نجري
نجوم
جبتها
تركب
وعندك
رميم
الدخول
حلقها
رهيب
قح
كافية
##حبين
##ريطة
الفرج
كاتحرك
ميبقاش
شفاها
##ودان
علمي
كمارتك
لمراكش
البوطة
فبيتو
عاير
واني
معيط
محتو
##طوش
تفوت
تاثير
تخوي
تشوفني
##باراة
حركاتها
##هتم
عضلاتو
مونطو
وعطاتو
سون
الساك
لقيتك
تصالح
باغاه
##نبلة
ندعي
فالعمر
فرانسا
bts
يوقفو
##mo
كتصور
##عيف
كيفطرو
الوزن
مرضي
##وحة
##ضحكة
وكير
ماكنت
مكتعرفش
صبرت
الكاميرات
ولبست
وعنقاتو
وتبسم
يوتوبر
نحي
كيبين
الهند
بالسي
##سيش
متقولش
الجام
محبو
##بعات
بلحق
الاسطورة
الحالات
بايديه
##خبز
فالسماء
مغيبة
خلقها
قام
##هاوي
تحدث
لبابا
واختا
تعان
كيفر
ورايا
##سوى
ساعد
حنون
قايمة
غبي
##یم
##ثناء
المطبخ
##برني
النصيحة
غانديرو
##ارته
##بارح
ينص
بالعرض
الدوري
##بيعية
تكلمت
ضايرين
بلك
فسن
لوم
نيتي
فيساع
شفتهم
فقدات
ماغت
لصقات
باهتمام
عروقو
بلام
ماركة
نطل
لية
الماك
##اديها
وتقولي
محبة
لقنت
لاسق
كنبغيها
حاضياه
زدح
اعصابها
شتو
##مهم
##ﻴﻪ
وقاد
وعاج
اعلان
استهزاء
بانها
البيضة
##يره
##اجها
تعمر
##حكومة
تملك
سكات
تاعها
خيبة
ونتمنى
حطيتي
تنعرف
مزيد
تسرح
نصح
دالما
شكيت
تلاقينا
ﻋﻠﻰ
سكو
كنقولو
بحالة
لكبار
لقحبة
لداكشي
مخشي
##فوها
كلاس
حشمة
##اجداجد
est
تبي
##اسوب
الصينية
لعزيز
استريلا
فكم
بالناس
الفوز
جيهتي
تاتي
ختى
##يتكم
##ربوش
##خلعو
الخرجة
كاتلعب
تيجي
توتو
##وروبا
كيعجبو
البراءة
كداب
متعصب
عاونيني
تمنات
حاش
عظ
##فزة
فالوسط
السايق
وخدات
كونو
كتخدم
تزنكات
حيا
خج
ضرها
البكاء
##اديمي
##طيط
وبلاد
الوباء
معندنا
خداتو
شفاءا
بانا
##fi
وحسن
علاج
الكبدة
يقتلو
هاذو
اراك
صلوا
علب
##یها
##qu
##جيدي
الفلم
##ديرش
مزينة
وخدم
توصلو
هبطها
حقهم
واليديا
يغني
فتيلي
##فزافي
خنزرت
همك
##زب
##يتنا
الحنين
كاتم
بتاتا
##قدرو
مستعدة
اهيي
مابغات
تبعني
المجرد
مصدومين
مسوولي
مسوقش
##غاريت
حزين
دمت
صوب
##ذير
كيعرفو
المقلب
##تسب
مخدة
فقنت
نصوني
الرياض
بطنها
وطول
لاست
كتصوني
بطر
ملعب
##طني
##يدان
##ميديا
الصفر
لحمد
غنع
كيتق
لاخرة
فاتحة
ضياف
كيجيني
فالفير
خوفها
تزادت
ميدار
الزهراء
وغمضات
الفاتحة
##طرات
الجهاز
##تحار
الاسرة
فهمتيني
حمدله
##راجع
استقبال
اونفاص
قوتو
##عنيش
متغ
احداث
التوني
هدري
2021
اربعة
نتسناك
##اهىءاهىء
كطلب
##18
##ظو
##ﺎﺭ
فالماتش
ويخليك
القح
مبقيت
مغد
مافياش
##دبش
الازرق
متوقعة
mi
غرض
##لابس
وصحاب
سيغ
تهربي
تباركاله
لغطا
توحشتو
##نقص
هدرتي
سمحولي
مونيا
محلولة
اطيب
##اليت
##ليط
نتش
موخرتها
كبرو
##فعال
همسلها
ينتقم
مشغولة
المديرة
رغد
يدر
##قطة
##اكها
كتلقى
والديها
الخان
تفرش
بلف
##ضوء
ضربتها
كيسب
هنينا
الحزب
متخلينيش
ap
ta
ومكان
##عيل
ميشوف
##وليش
غنشوف
لعنده
تابعين
حراك
فلوسك
الفعلة
مضروب
سرجم
##بوان
الصبح
ناشطين
علاقتهم
حضن
سنه
لونها
تجيبك
كدالك
جنسية
تيتي
الثلاجة
المحبة
سراح
عاجبني
بتحدي
##خمة
اشك
اشفيك
الوسخ
نقتلو
لوراء
عميقة
الشفاه
فجر
كتوصل
نتبادل
لمى
وشكر
سلامتكم
حلاتها
بغيناك
كتبتاسم
##خلش
الفوت
تبعت
وعض
يسار
كيتمشاو
وغس
المعجب
فهمتش
بجوجهم
البرلمان
حريق
رمو
##غلو
انث
انمشيو
##ميذ
الشجر
كايتر
المسخوطة
مهتم
تجيبي
جايبة
انجاز
مقطوع
sh
حجاب
دافية
##ux
##جاعة
بيع
وكيهضر
كاعما
مريح
بارتياح
ايدير
سمحتي
كيقطع
حسابات
تقوليه
متعط
بكترة
ويحفظك
حاقد
كدو
##غرت
العك
تعو
فرحتي
دوزتي
طريقهم
##قربش
27
halima
خم
مهضر
##رحم
عطاوه
سخفت
متبعين
لبنادم
ex
طامو
##خلق
##جيكا
مكنحملش
مداب
الشيي
بهاليتني
الوحم
ونزيدك
ازيد
حجة
قادو
الافت
منهار
##ايام
##بيو
##اقو
وحاط
حسها
فرص
وهية
كتشير
كيشم
نمرتي
صادق
ضغ
##گدان
بالفعل
مجنون
مايشوف
عمره
تغريد
راحتي
لزوج
الكره
##اهيا
لبل
تسر
الغزال
توكل
ينور
تلقاو
الديسك
تفاهمنا
دلب
لدوك
اناني
والدة
متالقة
##قاتني
استو
مربية
تكذب
بالتف
بوسات
وامها
زرقة
لوليدات
رضي
##جرها
##رجاك
والمر
لحسن
نتيا
لفير
##ريسطو
وتحية
حاحة
هبيل
##عون
##ﻫﺎ
العاهرة
العلمي
ايفا
لعربي
لكلب
نسمة
اجواء
الشيخات
كدلك
مرضت
عزام
سهوتها
mon
ارها
ذا
طمع
طايب
مبرد
ليبيا
كانسمع
##كتش
الرجولية
بايديها
فبلاصتي
##فاذ
يضربو
هاهاها
الطفولة
45
شكو
المزيان
الملعب
##ستش
##اديك
لبها
اسمر
سماحة
وخاصة
صحفي
##افل
وقد
تعاليق
##اطمة
اسلوب
بلغة
هاكر
لماعن
ضاعت
pas
طارو
يلوح
ﺩﺍ
##ame
انست
##رفر
##كونط
##روسيا
البشرة
ترسمات
العصابة
حفض
نهاد
##گو
##th
فيقها
كتعت
والنجاح
ونعاود
ميمتو
فعق
الاستقبال
تهبل
قران
الاربع
حامضة
جير
##زش
ليون
وقالي
ومتو
بجنون
عطينا
غاديري
فخضها
صبرو
يصاوب
زيرها
ﺑﺎ
##ولدو
##اعتو
الشهرة
الكان
غياب
ماتقوليش
تغريدة
##مشترك
معرفاش
باحترام
متنسايش
رغب
طرات
نون
يجر
##ذج
##ذاء
##افظة
البنو
وماد
وخايفة
تشارك
##اتكش
##وينات
حفصة
تفسير
##صع
##فعة
##انسة
المنزل
لمحات
مامس
فنص
فمح
وخلاتها
تقتلني
التغريدة
قربي
يصل
##😂🤣
##يدنا
##ازل
ميلو
المسرح
جبتو
نوضها
سولها
👍🏻
##نكة
##يان
الهبيلة
##اقط
ولقا
##اصلي
بردات
مصلحة
جايبين
مطلق
وتنخص
فهذا
فريقها
اتي
غابر
فكي
فالرباط
كنجي
خليوني
المسلسلات
فجنبو
الحملة
عالمية
ابواب
مديريش
##وريها
وراجلها
منخفض
cuis
فادي
فبها
##كشي
##صحاب
القليل
موظ
فعالم
نقل
يقلبو
حملت
الثالثة
مكانوش
##ham
خشن
شبعات
شهقاتها
تفرحي
خوية
سوزان
طاغي
##صحة
##یش
كتوقع
##لوقة
الفك
توضات
كبري
نيمار
واسد
نمرتك
الضياف
تانت
خاشية
شل
نطيب
##فاو
فالفاي
وباها
وباين
الترجي
ابداع
لحفلة
اعلام
كيشوفيها
لبيض
وذنها
طوموبيلتو
لاقصى
حويج
لافي
الباي
وتبعها
ابان
بقب
لخلا
مستجابة
كارط
وبعدها
سافا
وسكتات
تيران
كتي
##صنت
##ونش
واشتراك
ميكة
بشار
بجنبها
يدافع
لقاوه
وتخشات
عموما
بالفرنسية
ذاتها
طفي
##بقة
##خبار
ولكل
القاص
شفتيني
##نساء
تراج
فنور
عشاق
كلاب
بلادهم
##ناكها
الشعبية
تقدرو
الرابع
ادخلو
كيخدم
يعطيهم
المكالمة
ملوية
عشية
##لتك
##صرية
متردة
ويجيب
لمليون
محتار
##تسلام
لحمار
وليتو
تكشيطة
شهقت
##سيفطو
مقدراش
##اغية
مخلص
وديمارا
كندخل
##che
##جنيد
نمرتها
تناقش
النتايج
جاهل
كارت
مطعم
##زمة
الضعف
بجميع
صداقة
##دارس
ماجا
والمغرب
الطيف
الخيال
ارتاحي
سيت
يبيع
##ندة
بالحس
الدير
الجبل
لعن
اكث
يشعرها
حالين
الرجيم
فتحو
تقلبو
بثلاثة
السكرتيرة
يقويك
رامز
ﻛﻴ
كيبتاسم
##ورهم
وتنه
##عوه
بكيتيني
وبتاسم
##do
تيضرب
لحريق
##رجعش
مامع
صحتها
##تقال
نغسل
وعطاه
وعطاتها
وباستو
تبيع
خدمو
فمع
لاحد
نغوت
##وثر
##منو
##گع
##ers
##وقو
تعال
##عيها
##عيطو
##اناة
يحتاج
##ضيح
تويتوما
فطبلة
##فارقو
الزوجية
كيسمعو
##❤❤❤❤❤❤❤❤
مغوبشة
بامر
سونا
ياص
##غى
المركز
الفتاة
السطح
مساخ
مايقول
##رقني
الاسباب
##وهات
عفوية
لبيبي
يعجبك
ضلو
##fe
والكل
القمة
لمسة
يسخر
مصلاح
فهمها
هدرتو
جانب
هاويلي
##جور
كيقولي
##روى
اوت
الفراغ
متخرج
التلاميذ
مرخية
فرحتها
توحشات
سوقي
نتسناو
cuisine
ti
جدها
دنب
مهر
##اخة
##طيو
الشريف
انتظار
بغيتش
مجات
نصلي
المواقع
حيدها
مثلة
الذكر
##est
بسبابو
يزيدو
تنتمي
ماهضر
فالمستوى
##اشق
موص
مخرب
نقلبو
علبة
وكتش
##out
خطار
الخيانة
تنساي
راق
قيد
##ﻴﻦ
المريضة
##روسة
يحمي
يحرك
الرقص
حياته
تخص
الدرس
بفمو
النجوم
نضراتو
الطبيعي
my
اطلع
حاق
رديت
##ثين
##ظنش
وقعو
مسبقا
الكادو
لقجع
ريسطو
الايفون
بنفسك
الاستغفار
غوباشتو
سلك
ضروف
فراغ
يكملو
الدقايق
النخ
##هارون
الزوهرة
فقص
افين
حاجات
مكمش
ربحت
دانون
شطيح
عريس
ماني
##um
##90
##رجمة
##مالها
قلبنا
مثقف
رياضي
الكيبوب
العلاقات
حبا
شكي
##امرات
وعارفة
تسير
اتق
لدنيا
غتاص
مستشفى
شراف
يصلي
الاشكال
كيعض
الظهر
ﺍﻟﻤ
دافيد
النيفو
ثورية
قنط
كطيح
يطرطق
##عري
##يرتو
الملاح
الفتيات
بيبان
لمسات
يسامح
##عمار
حفظك
ميريكان
التعبير
كوميدي
سلاو
يتسنا
##افعو
##وفقك
##ياط
فرض
فرنسية
شعرة
اغتصاب
##ديس
##ميتي
##لعت
تبغيني
ليكان
##وكة
##مانسية
يقتلها
يهزو
يمكنك
خداه
فامريكا
هانت
##شاب
##ميق
نعلم
##يريكان
يقل
##حتيني
حبيبها
نخدمو
الرايع
si
بتك
العاص
البات
##خلات
نتاكد
فحالنا
وطني
حبيبك
ادلر
صفقة
قلتيلي
حاولو
ابنادم
تلي
ترت
الامة
##اكدو
##ريط
المالك
كاتضحك
لكار
وشعرو
حطني
غنموت
فخبار
المصري
خلعها
ham
##قينا
##لافة
##ندو
ميديا
ماتق
افت
نفرحو
فصالة
كيشد
السلطان
ضرت
قنع
##جوج
فالاخر
وحياة
وبا
ماعمري
خلاوه
تراب
الفنانين
الموصيبة
سيني
##حنات
لعبت
بقاتش
##باردور
كناكل
فالحين
وبعدات
معنقاها
حجرو
28
روية
يبع
##26
والسي
الحظات
بغض
ومالها
تسار
الرق
##شوار
رقبتها
##ala
شكاين
الرايعة
مجاوبهاش
برشلونة
##اميرا
##اجاة
مشكور
ويقدر
كاتمتم
كيتخ
فخادها
الذاكرة
محروم
الڤيلا
المراقبة
اضر
##حاس
##لسة
نعمل
تقنع
يدفع
نيس
يهزها
##ضلمة
كيبدا
##لوان
غيرة
السابق
ماشية
##نساش
لايح
شغال
الاستاد
غبرات
مفاجية
##نمية
##گا
##ضامن
##ايلي
##وريني
الحركات
وليني
##طيبو
الخايب
محمل
كاتست
براهش
وسمح
المغريب
تايت
il
باني
يطل
##ion
اوگدان
الجب
تستوعب
شعار
بانف
بكامل
الدارجة
شخصيتها
الحلقات
كتخاف
##حملوش
دخان
##جاوبها
تكمش
كومنت
الفضيحة
راد
لتي
##عمو
##روحة
اليمون
##حكو
نهاركم
يقد
الرييسي
الفرنسي
فطرات
ماسوق
البساطة
رواية
يمد
##غرة
##اعدي
العري
بغاني
لعل
نعلي
تقلبي
مزالين
تهنا
بسبابي
نفي
ياما
##ستيك
##15
##کم
##اخذ
الواجب
وداي
لخي
قلتليه
لاسقة
تدخلي
##قبلش
نفكرك
عضو
عجيب
##ريخ
##اويل
شيك
فالسن
الخال
يحطو
تسخ
اتابعك
نشوفوك
نخليو
دمها
فست
##وفتها
السكات
اشاف
وخشا
نقط
دالق
متيقش
الهادي
سمو
ضاي
قاعة
كتفتف
ورسول
عرفاتها
دايخة
تبتاسم
رخف
شربو
يمسح
كلينيكس
ويب
الشاشة
##ويض
بصبع
صدقة
الاعلان
الولدين
وتبعاتو
ثقافة
مفاهمة
رنا
طلا
عذر
##مقو
##فان
##va
كنهضرو
##جيج
وماح
تحماق
مقد
الامهات
كيتامل
المنح
ماحم
اتحداك
الملاين
صونيت
خربق
ينو
العاصمة
اسرة
تفق
لقضية
وخو
وخلاه
تصلح
فدموعها
ارضي
##اصرار
اعتقد
##chi
تاز
خرية
##امحك
كايعرف
وردي
الفيزا
ستغرب
كابير
ساخط
مشتركة
وافتخر
ذكره
غلاط
قلق
قضات
موني
##يسة
##فيني
المافيا
##ويشة
نشارك
الاحرار
وينزل
وداز
جساس
فحل
مجبد
##ولتي
الحمق
وقتي
ونخرج
تفتخر
مايكونش
##بتنا
لايحة
هكداك
التيساع
وبعض
ومراتو
الخشب
kha
جثة
ضمها
نوجدو
##ابرات
وحيدة
##اطير
قالبة
لغوات
##صدقو
sam
سهار
##نيني
##per
##ادلو
العنصرية
شيخة
الفينال
تيبغي
انته
مايبقاش
فخدو
فلمر
عبرة
تخليك
راوول
داعش
فعويناتها
man
ايران
لتس
ينا
##واتم
فكاس
فكلام
ماخلق
تصرفاتها
قطرات
اهىءاهىءاهىء
ااه
##ميني
##هال
كيدي
هولاء
الفاس
السوايع
وماش
وبز
شفاه
تصال
فحالهم
سليب
فرجليه
وكملت
مداير
بوها
سنب
يلطف
معلوم
الحكرة
البنك
كايو
##ويتي
الطلبة
وسعت
طلعنا
مصري
جابتها
فالشارع
فهضر
فصب
مهو
بعدة
##لبات
اعادة
##بتيني
غوتة
وهبطت
##جاوز
دينيز
منشور
تغرغرو
تانيا
طنج
##ندك
الباج
تعض
كاترعد
تخربق
##بغيكش
##قراي
ازمة
العدسات
مربو
##زقها
كيبغيني
##احبي
##دوغان
كنز
##ستك
ولاي
اشكرك
ويزيد
عنقي
كاتمشي
ورتاح
مدارت
##سمى
اجنبي
جلد
بهستيرية
سجود
لخدمتو
دلح
زرع
فث
الارج
فالبو
تيجري
اتخرج
تصنع
قبلت
تشير
نشوفهم
صحيحتك
دويتي
محرومة
الثقافة
##تصار
##كتها
##عقل
السوها
وصدرها
يتفكر
المسيرة
ينج
كيغلي
نظراتها
قهوتو
الكبرى
ستيل
عصر
##واق
##شتها
##غربية
##نازل
كترة
كنكره
ولامار
ابسط
تنقص
الاذن
اختيار
مانقول
تبعات
عضت
وقلبات
التصوير
##uty
التطبيق
حادر
زال
غاتش
كاليك
##نی
##اسعة
ديالاش
كيداع
اياس
لبنتي
نتايج
الجحيم
##بانو
رباعة
كيعني
تزوجنا
ملاحظة
مادة
##اسع
##ولاد
العيش
اليمين
متقطع
تحد
##برات
الشوية
وعلا
ادكتور
الجزايرية
مبغاوش
ماحسن
وابتسامة
الجماهير
الرشاشة
filali
##ka
##ولتها
الخميس
وزادو
الفرملية
##شراب
وركبات
عرقان
لوخرى
حاوط
خانز
مارت
##فقف
##ps
منقدش
انغام
##ترض
تجيبها
فهمني
دوزها
عجباتها
كفي
##ختار
##قالة
اخوان
بغير
وحبي
اعطيني
قلبهم
تجلسي
يدق
##خلوش
##ابيع
لنهار
الصحفي
القوم
صدقتي
معروفين
السلبية
صعبة
##oi
بالبرد
##سيلو
احفض
##وكش
مالقا
نقصي
كونتي
سعدات
بطاقة
فاقو
رسمية
بلسانو
الفوتوي
ثاب
##داكشي
##ﻌﺎ
##الاه
فالمدينة
توص
##بسات
##صيب
فحق
الرحم
##خافوش
سريع
يعوضك
سی
##ايبي
يحت
ضيق
برفق
فخص
يالي
##جف
السلسلة
تعر
##افيل
##برق
وصاف
انتهى
بقلبو
مايقدرش
مابغاوش
والحاجة
لطيف
فسيارتو
بصباعو
بالاخص
ظافر
فجيب
همها
كيضرني
##لوحو
واخدة
النم
##بقش
اتجي
تشدها
بكثير
وكتفكر
ينقص
بارطاجي
##اجيها
كيخنزر
كليتي
وثب
النفسي
حافض
صريح
##تور
##صم
ليح
##اكب
معاج
تباني
الطاولة
يسمعو
مصلح
الاساس
وكتع
كتشد
خاسرة
معانقين
يخليني
كيحر
##اعم
السنسلة
حساتو
نحر
المشهد
##nes
واجدين
قفزها
كتمشا
بزي
گالس
##جمو
الاله
##احش
والمح
وقول
تحسن
##قوس
وحدها
الجمل
الخطر
##عيالات
محرك
تفقص
ودورات
الروتين
##مقرا
تعليم
##اهداف
صبحتي
طبية
مشك
متفهم
نسب
وماعند
لولدي
المصعد
المصايب
تهدري
البوسة
ماكرهش
حولة
سجل
نفت
##اكية
معاود
كتقولو
##عوها
وكانها
الامتحانات
##عمك
فدارك
كيقبل
تعطلنا
##اسيا
المناسبة
وبانت
اكفس
##نانها
تشكي
توما
غايكونو
عزيزا
لويس
دماغو
مخطوف
شيت
##تيانو
اخطاء
اويس
وباز
الشارف
نعلمك
وكضحك
##ماتي
ولدهم
القردة
حاطا
عاونها
تقرير
فالنهار
##ﻳﺎﻝ
داوين
شهوة
عير
كاري
##تبة
##16
##موض
بغاش
احباب
لعبات
##ويوي
سيما
الطبيعية
يتغ
حملات
نحطو
فكان
دريال
خوفا
يسعدكم
ساحرة
ماديريش
عبوش
##فد
ونيت
حسنة
##وزين
##لاهبية
مهبطة
ادارة
وكانه
كتبغيها
اتحاد
سنو
كض
همي
##فني
ويضحكو
الشديد
مساعد
##ويق
دخلني
ضحكتو
مراقبة
غليض
##سار
##كذب
تعقد
لكحل
انتق
مكنش
مصغر
شخصيتك
تصوري
تعجبك
تجاوز
كوستيم
ri
قاعدة
لبكية
##وكو
الطاجين
ديركت
نصيفط
واث
كينت
بلباس
وبنادم
اصلن
انجيلا
ذقنها
##صبو
##شيات
كتنزل
وحسات
يديا
بينات
##بعش
الراحمين
المعدة
مابغا
بالحب
البارسا
قطعي
شحن
فحتى
##هول
المعم
##زيديش
ومخلي
ويطول
القادم
بجوع
الاحزاب
لاعبة
اوفقك
تبغيه
فخاطرو
ثالث
جداتها
عسى
##وضو
##نبية
##اكلها
ديمة
فالوات
داكوغ
انتر
طيلي
انيقة
كتخنزر
كدبت
تنفخ
ماديرش
مهيم
##بلا
##ميساء
ولاحت
متنوعة
##هيار
داروه
لكيت
الطون
ياكي
وقالو
المشاهدات
طالبة
تابعك
##فخ
البان
##عيق
مغريبي
باغاني
لغد
الالكتر
صبحات
مطار
##ثال
نتفاهم
دارين
وعاش
اتابع
##ضربة
يختي
شاداه
كتسناي
جرت
قضي
##طام
##دينا
##فلات
كتكتب
بالدو
بيديك
القنات
لعو
الكف
الاورو
بحتى
تلاحي
وعقلها
مشافش
وزوينة
يعيشو
بنفاذ
علاقات
الشدة
عطاوها
الاسلوب
صغرات
وكتحاول
الدراسة
وكايشوف
تبداي
الزيف
##مرار
الخرة
الشرق
##لهام
وكدا
غانقول
كينزلو
المخت
صحابك
بالصدمة
فاسد
ومسحات
وتشوفي
گالسة
gاع
مبي
مبلغ
##التو
وتخلي
نتعرف
كاتسنا
بشخص
تجيني
##طرطقو
##ard
تدخلو
بغيظ
زربان
معجبة
ريتو
ليان
فالكو
اوستن
الكفار
##بكش
السيف
##نقني
فكرسي
صايب
##عاو
##اخدو
ولما
اوامر
تحليل
بناتي
غيكونو
شفاوك
سمارة
فعمرو
جيلان
راكب
المسمن
المعلق
وماعرف
شغلو
الميز
نقدرش
واميرة
اهمية
مخنوقة
ميكاب
التبرهيش
فمش
##ib
##🤦🏻♂
منشوف
منكر
البرك
ولت
وتاهو
واخرة
يتاكد
الحقوق
كيحط
يطرا
الميلودي
مخلات
حاضرة
دريات
حمداله
توقفو
علاقتنا
شارب
قاسية
##باق
##pe
##اديري
وتبس
لمجر
وسفيان
ماقلت
فالتالي
فلوسو
معجبنيش
قدوة
معلقين
جبران
طليفون
كليلة
😍❤
ايق
الشروط
التالي
كاتمسح
يحيدو
مكانو
وفرحانة
رومان
زول
سارح
يلت
##ram
##هية
الشوق
ابعد
ميقول
وخوات
عزيزتي
يوصلها
na
ظالم
قار
ﺩﻳﺎﻝ
##طعة
##17
##ديكم
وياله
قالولي
ودغيا
بحل
فرحتيني
مستفين
##صدقش
فالمج
المنكر
كذبة
الويفي
love
فستان
کان
##صان
الارد
معاق
##ياهم
ويغ
لوضع
مدورة
المسابقة
ماعندنا
وحطاتو
والفرحة
راوان
داعي
مفع
يزير
يثبت
الحكام
اخوة
امريم
##كتة
الدماغ
الشورط
##ناتها
مصور
بانك
حمدي
تغمض
المواطنين
اردها
عالام
om
##كلي
##خار
##تياق
شعبية
الزاجة
تخرب
##رامج
قصتي
##❤❤❤
مخلين
لجيهتو
##ثيق
لرجال
جلي
خبرة
##vo
الوا
##تيقاش
بزربا
غاتبقاي
موسم
تجمعي
حلمت
ni
داوها
عدي
كتبعد
البني
مصالح
شوفاتو
لخط
يخطب
ماخلات
ماسك
##زعاج
فالداخل
كندعي
السيروم
تهم
نهرس
##عق
##دتها
##موح
تعلمو
فعمرها
##بغيهاش
هاكدة
##فضح
يطلقها
الانتقام
هالعار
البرود
كيعجبوني
وتلاحت
جواي
خزيت
سندي
##شح
بيس
اباها
وعماد
اجت
فدارو
وزاي
الطواليط
العرسان
##بوريشة
المومنين
نمو
نلوح
##صن
##خدو
##اريت
كيكة
##زيه
##راضة
وردات
لدين
غترجع
رايها
فالمية
قدور
ساعتها
تشوفيها
لابا
##جاز
##ger
##رجولة
تحفظ
تبرا
##حيى
موسي
يسد
##ريقية
##رته
غاتع
غلطة
##بالي
##ولول
البارد
اماليا
الساح
تقهر
النصر
كنتع
نجاوب
دايرها
فخاطر
فهمو
احبكم
سبت
##نيف
##رحمة
القض
ماتكونش
بنتهم
خيال
جيدا
كيبوسها
صبعانو
روجين
تمرض
رود
##بيط
فالتو
مكير
اهديك
بغيتكم
##فرض
وراحة
وطن
روى
##قيناش
قبض
ميغسي
بالظبط
بضع
دن
##كمو
الباطل
##ايري
##تراح
نفاق
خطرة
ماجات
غديري
قاتلي
دلم
غبية
##جرب
وتاي
لقمة
الطم
يحشم
سمعتك
يقال
المواقف
فحلقها
قصار
##بوسها
شغلها
اميرتي
ارحمو
موالفة
تقة
##هني
##يدها
فالنفس
فالتيلي
البور
ايجابية
بيلا
##اصلو
الخالق
فقلبك
واعلم
جابتو
غمزو
فالبيرو
محروق
والابتسامة
حالي
موز
##غين
##ﻮﺍ
##ايلها
انظ
الرض
نجربها
##مشط
الناحية
كيرد
خواتاتي
وغوتات
سنباي
باري
سقف
صعاب
عشا
##تان
##ثيرة
ديو
##اوات
##طيطة
عفا
دوبياس
ماركيز
معندهمش
سخانة
كيقولها
بالصدفة
دلو
دلات
ڤيديو
##ris
التها
فيت
الشين
الشعوب
وخش
وكاس
##سوها
يختار
تستر
جالسا
كتسمعي
اصحبتي
الخطوبة
##اشات
كتنتر
##فيض
تخربي
استدار
##ذيك
كارلا
##ناهيا
لفران
المباشر
تيري
😂🤣
##سف
ديالمن
##ريتي
كتدخل
الساط
ومقدر
##حكرة
الصحاب
##برديلة
الكاپ
مقلتي
تهيا
نجاوبك
الاصوات
اعشيري
جها
يتيم
كيعجبك
العادية
مبسم
اعليك
اعراض
اتا
كرزة
##وصات
ينسى
مگ
منار
##ولش
كتسن
والاست
وياسر
كايقرب
دخلاتها
السيبة
لوحة
الخراز
كسوتها
يطيب
##روبة
##طيشة
ونصف
يخوي
القوي
##مليات
اﻻ
##سمة
##لخ
##ينز
فالعم
بنهار
تعشا
بشاخ
شادو
السياسي
فبلاصتك
علمني
##قبلها
بتسايل
عويناتو
مرتاحين
فاليز
كيزدح
يتيمة
ظهري
ﺭﺍ
##ثاقل
##اسبو
بحاجة
وزع
##صوري
##ناقض
لقيصر
كتحمقي
##طاح
##افوز
شيح
الياب
تنتر
وشف
يحميك
قراءة
المقادير
كتبدا
مقاداش
السعيدة
bel
جعل
رجي
سات
غفل
##راك
ديلمو
تعادل
لكري
ماتمشيش
اتفق
##بداي
ضحكني
ركبة
التعامل
كيشطحو
طوبيس
تصويت
عالمي
رديها
هايلة
تحرم
ويجع
##فرقة
ماعق
تشم
نحضر
##بارطاجي
خدمتهم
وصلوا
والجزاير
قرايتك
الشهية
beauty
البلاكار
وصدرو
##تحر
حياتكم
نحتاج
مشيتو
يخف
ملال
عضلات
محطوطين
ماتنساش
##ستو
##ﻴﻨ
##ذل
الحلاوة
لعافية
مسطي
وعايشة
ميقات
وكد
لواقع
##عرفة
اجود
تردي
شخصي
البارون
وطبعا
شحاجة
لدا
ميني
##نال
الريق
ليهود
تفقد
##وكان
اعد
باسني
نقرب
غتبقى
نفتح
لاحسن
راحت
حبيبا
لاواه
يوفقكم
ah
تگول
نسيفط
##ربط
ولقيت
##زيم
ومف
ومرض
الغل
الغبرة
وراح
بقناتك
عطاتهم
جوان
اجمال
##علك
السكن
تعلات
يعض
تسكن
يكونوا
نصها
الثلاث
فطرت
كيخاف
المرضات
واصافي
حاضين
دبصح
بستغراب
سديت
قناع
لونو
ياها
معسلين
الحواجب
العنق
فالطو
بعينو
وحدو
ونطقت
كاتص
لقسم
ورم
قلبتي
##ارتنا
##صيلة
رباط
المرقة
الذكريات
عودة
المتع
عتمان
كنتسناو
الزيارة
تقابلات
بارح
سانك
المدارس
الكدوب
تقربي
اصغر
نسال
الزفزافي
دواك
شوبي
كيشطح
بالخاطر
بصراخ
سهرة
لانت
مادي
##طوفة
بالمن
##كتبة
الراديو
الرغبة
ماعمرو
بتعجب
يهنيك
شهراين
قاطعاتها
الڤيديو
غواتها
بيجامتها
نضحكو
البلوك
تعشاي
اسطور
اكد
مخدام
وكيش
حالتهم
ركزي
والحب
ويدخل
وداها
اعود
علق
يات
##توني
##ديقي
كيجبد
ايع
وملامح
مولاه
##اضيع
فلوسي
رسميا
مقبولة
بند
حاي
##ماري
##شمة
##عله
##يرتك
كتلمس
##يدون
مشاركة
لعنوان
الكذوب
برامج
شعلت
تصدمو
عقدة
صباحكم
الحقير
معندهم
خوكم
بالساروت
بفضول
برة
صاو
ظل
غدر
##خارة
##هلي
العدل
وتحل
ليكوش
##ناسبات
مايجي
##صلش
غنبقاو
##رضع
جبتيها
فاقدة
فودنو
الخياري
رومانسي
دوم
##اكو
اليومي
##سيكو
لمز
فعينيك
الفيقة
فداخ
تكاي
##اسيو
بكلمات
تيليفونك
كذالك
##ama
##فرحو
باعت
جناته
وبنتها
اطراف
we
غاية
##ضغط
ولابسة
نتبع
لملك
تقتلو
بسروال
##عداء
عرفتيه
غنح
اقرا
##نهيدة
اقتص
زغ
شكا
ظريف
لالي
##صاف
##اربين
كلارا
##انيه
##انيات
ويونس
غيمشي
التوام
amp
شمات
عنو
نقوليه
##وبرز
المشي
تحلي
الجليل
وباه
تنكر
ماتكون
الامراض
عصبية
دوخة
شكلو
فالكولوار
يوصلك
ترجعو
موق
يلقاها
وعمرو
تسدو
##ارفان
لشهر
قبايلة
البلدان
جورج
35
سيدو
٢٠
##ديفو
كتغبن
بالون
بالمش
اليخت
وحركات
وبينو
لحل
##ضيش
فكولشي
نهيد
كنحلف
والصلاة
زرقين
دوجا
حسيتي
منبقاش
##امه
##يتين
الفندق
وعسى
مبانش
فراه
مقلت
لوذ
راكان
بوكي
الاوامر
النظرات
والخوف
التجميل
شيرين
قبيح
فطريقو
دكرى
بويا
بعينيك
القناه
##ويج
مزنكة
الرصاص
موطور
ماكرها
غنشوفو
جمعها
تسالمو
بنفسي
tra
حدة
##نقك
الندم
##ربى
السبة
وبح
##عوش
مقز
ماقلتي
قطعتي
الميكرو
نكول
رتاحيت
ابيضار
##🙏🏻🙏🏻
وزينب
ورسوله
has
شكت
فالمكان
##وقين
عادين
بقيتش
مجوب
فراسكم
فداري
ينصر
كيغني
رفايل
ثقال
صهد
فسم
يوجدو
##ادن
فيقو
بالتو
بالالم
##تشر
الرمضاني
يتبعو
غانبقا
فايتة
قدما
سوبر
حلوه
وخليني
تكلس
عنقني
اعيش
حسي
##ختر
البيبان
الحالي
الفيل
السكري
##لمان
رجاوي
لمطبخ
واعت
وانو
كوريا
سراج
ماجاش
بونية
رخيص
فوذنيها
وتنهدات
جدوى
شترك
##دبي
##بطي
##ﻠﻲ
##ابش
##اسف
انط
اخوية
السهرة
تعام
الجمر
تنصح
الراية
لفون
##ضربك
قراية
لصقها
وهازة
ماجد
بونوي
مقابلها
ps
##ﺘﺎ
##ﺘﻲ
كتبدل
مترد
الكارط
##خرجة
لوالو
عشيري
كتعبر
##اكشن
كيصحاب
موجدة
الباردة
وقطعات
##شيها
كتمنى
##اعيد
الحارة
فالاصل
بغاه
ويل
وعاودات
فيناهو
وشه
تسلت
مواح
##المهم
كولهوم
عفك
نظري
خلعة
غاتكوني
بوجود
خانزة
اشتري
الفعايل
اء
طز
لرباط
##بيح
والجو
العن
الشهوة
محبوب
تيقلب
مقديتش
الغاز
وخويا
بلخ
المساج
لقيتهم
دمايات
فلحيتو
تعطلات
لدراري
الامازيغ
سلو
عشو
مبل
نصل
گالت
##13
##هاض
الترك
بلاكة
بيناتهوم
الزفت
وفكر
تخنزيرة
##زوجة
ماغن
نخوي
لفرنسا
ترو
ترا
واهم
يخلف
ديلمي
##وفاء
ايسر
##ركش
بنضرة
شفقة
تران
ميتين
عاطياها
الموظفين
شموخ
بعويناتها
خوان
##تصب
##بعي
##ca
كيلمس
والاش
##دويش
الفاصمة
اشهد
القرد
تيحس
نحبس
اجمع
لسوق
فسما
بلادكم
كيطلعو
قرايتي
غوبشات
دامعين
رزقك
غب
##المو
##اعدو
ايح
تحلف
الخيل
كيفهم
البيجامة
##تقار
الميكة
تخذلها
حاص
دزاير
صالة
فبه
##ابزو
##رجها
تعبر
الشبكة
مبرو
شفارة
وقفتي
مكنبغيش
بتثاقل
المسالة
لصباح
الاجرام
فالصورة
ارحمها
الصداقة
سافاش
بيري
خبات
قمت
منطقي
##ابرو
كتفي
العاري
يعد
لكني
تسولو
غانس
نحمل
كيشير
شغان
##end
البشار
نتشاوفو
صانع
غداي
##كب
##ere
كتبتي
مازالة
ومول
دراع
بدى
يتبدل
مامش
##بغيوش
مابغيتي
وكتهضر
بوط
شرطة
انوض
تاوهات
وهبطها
بنيامين
صلو
وقريب
متاب
اسفل
مسعود
لحت
##صلحة
##ضربها
نجحات
دوماج
فنفسو
ماجاتش
الاجانب
وهزت
مديري
##لولة
##صاء
##خرو
##ونغ
الفية
السردين
بزع
##حياتي
قتلات
الجلد
فلكوزينة
غمزاتها
ساطت
الحمراء
بقو
المفض
الهجوم
##ندالة
العشر
البرامج
كلبة
##سيات
السقف
اشعة
اشاهد
القضاء
تجد
اغيد
البيجيدي
سباط
هدرتك
امامها
زكريا
يعاونها
مفاهمين
ذراعو
العياقة
دماغي
ذنوب
صباغة
نغير
يمنة
##يدي
معقو
كتلقاه
متد
الشريفة
الكلي
ينجح
فكرشك
كتشعل
##صورش
بعقلها
سني
طاطا
البلايص
لبغيتي
ويوسع
يقين
اجازي
##ضروري
وانف
##طانيا
سخان
المحسنين
كذبت
مقصحة
##ولوجيا
الخانزة
جاري
##تب
##ﺪﻭ
الموني
العديد
وتسمع
تبلو
ويلاه
التفت
كايط
مكالمة
تسناو
##ضيها
وفمو
فرحنا
ترمش
وطريق
##تسناك
طلبتي
جيهتك
خسرها
بسخط
ومرتو
البريية
الانترنيت
المراهقة
ميلودة
خشى
##هيا
##فش
##پي
##اراو
انتو
الحجرة
غيش
مقاطعة
##خصر
فقبلة
##مكارة
الاعجاب
اردوغان
تخلط
قتال
مطيشة
فالتلفازة
الديكور
36
بجي
تث
جنوب
فجردة
ماهر
ناب
##سدها
امهات
متمشيش
الجنه
كاتدور
لهج
هاهما
غانع
حلفي
يهبطو
ماعندهم
حبسي
متوتر
2015
لكتاب
اسمهان
زليخة
وبلادا
بريق
خات
عوال
لارد
##ct
##45
الارقام
البالي
ومرحبا
الدمعة
زواق
##حيك
##بينها
فكاع
سيفطات
##غرير
##ينوض
فالجهة
الكلاخ
##صلاحش
bo
فقيه
نكم
##تات
##🇵🇸
ولابس
ماعلينا
كيتكلم
تغدرها
نشم
قدرو
فكرشي
صحية
المستعان
جريت
نردها
رابحة
قبيلا
والديكم
##ناز
معزة
موض
##عرفها
الاسماء
عقاب
كاعي
##عينات
نبض
الارها
##سناو
صراحه
سيمانات
زهري
هربو
##نقي
##زارة
الهر
الساحة
##راير
تعاو
##طوط
##ازو
النادي
عبداله
ودخلها
##den
طبخ
والبنت
والباقي
مفرش
بروجولة
خاين
فسر
نات
##ذات
ولج
ويوسف
##منش
تفاجي
يتصرف
##بغيه
لفمو
يدوش
##نزانة
اجدي
فالمطار
##مارية
بالفلوس
##amal
##ضحية
يقتلني
بفر
طيري
يالم
##بيز
##اجهو
متعل
الخرى
بابها
المسجد
فحضن
لاحتو
لايكات
بالمرة
فالسبيطار
بركلة
يتعصب
وعيب
الكيك
توقفي
حلفات
##حني
##موتي
تعذب
كاتغ
بقلب
عارفينو
المعروف
تكولي
شرطي
الرحلة
عنيفة
##حبو
##صول
المرى
البك
وقلة
وباب
الرزق
استطيع
يخليلي
انيق
بلعت
دماغها
تعرضات
معقلتش
نقولي
کے
##فقة
الموجة
بالاض
##اقش
##اصول
##ومش
نجحت
اكره
ركبي
لساني
تلفونو
جيهتهم
بريفي
ودراري
شناهوا
العايلات
ادوز
ثي
##ونيت
الحسين
هواها
##هواء
الخمسة
كيفية
كايغوت
##منات
وفق
نفسيتها
لجامع
القرن
علمتك
دعمكم
تربى
كريستينا
الزيتون
لفوطة
سرب
بالراحة
شيما
ومتح
وحر
تيلعب
##لقاني
النقط
الطابق
تواد
ناسي
فالمدرسة
كملتي
كتفطر
مجهول
الفلسفة
هلك
##ابقات
وحدك
نعاسها
الغباء
تجاكيط
عقدت
تهبلي
بانفعال
سوارتو
حبست
كتصلي
اتولي
بنوتة
ومبروك
لمستواها
شی
محك
الاية
المباراة
##اوس
وتبوس
وعايش
لحمك
عطاتني
الاسلامي
وزيرات
فالمخ
حليوة
ارجد
##ant
خداتها
رزقي
وفالاخير
نكتة
ستاراك
المورال
خاوين
دبر
وارج
يطيحو
كيهد
المفضل
وبصوت
مسامح
ميش
عيقتي
بطرف
السيطرة
وحطاتها
كابوس
خور
المبارك
##اعب
طلعاتها
الرخ
مامزيان
مصير
بجد
حالات
مهرجان
بايت
هدرتها
قولت
صورتو
سوسو
فیه
تافهة
حضنها
مليوحة
العلماء
الكاپو
شبكة
ﻟﻲ
##طالي
اوم
راسيل
وتهضر
وتزيد
ونرجعو
بلجيكا
الاختيار
دعيت
موجهة
الاجراءات
##ki
##ﻤﺎ
لكسوة
مزروب
نسبيا
عرفي
نجية
فبزاف
فايديها
جراو
##شرش
تابعاها
رومانسية
##لث
الملاك
هيي
كايز
كايضحكو
يحف
فرمشة
مقبول
##فرقو
مدت
بسميتها
الاكبر
مختالفة
##ube
ادعولي
رين
سراق
قارية
واءل
##طحة
وحاطة
مجرب
وهزو
شوفوا
##لاحظ
زيان
##نهاية
يغبر
دفعت
دونوي
فالكلينيك
ذكية
##حمة
##ni
##tra
##نوية
علاما
الجثة
الخنز
الخطوات
الشطيح
الغر
غاتح
نوليو
سلاحو
باختصار
السداري
خاد
معري
##راز
وبرك
##بعت
عرفني
طالقين
فكرك
##مناي
##زينب
وامين
كتغسل
الواقعية
ماعمرني
لمنتخب
حامي
فصد
لخلي
##تيت
البنان
كلينيك
مشهورة
القدرة
##ربيش
بشورط
##سكرية
##صارى
جريدة
افكارو
توكلي
دينك
لربي
شيحد
##اركينغ
بسعادة
غانشوف
##حتهم
مكتشوفش
دويرة
بواطة
##اسيلة
المقابلة
كتقصد
لمرات
وكاتشوف
غتكوني
تفرقو
المرحوم
نساليو
ثرية
غابة
قاسي
##اسه
معول
كنسول
##سيان
وقيلا
سياسي
الرعدة
ياسلام
تجميل
فرحو
مستمتع
خالها
اداك
الضهر
فضول
دفعاتها
ركبتو
جربتو
وراجلك
ريوسهم
اليسار
vlogs
##منتخب
ريتويت
سلف
موقت
##يرتي
##ايز
كيقراو
العاط
العصبة
فالجيب
##معني
ايكونو
وتجمع
متبقاوش
كانتمنى
تجن
يهديها
ربندز
عافكم
كيخم
طبقة
تصرفيقة
عريانين
قرايتها
تاحنا
ميرسي
فخاطري
كتفهمي
##زاريو
الميل
كانك
العاهرات
العديان
لمدير
حسد
تقدي
مكتو
تجرا
##اولات
المشترك
سولات
طرطقات
مسوقاش
لوليد
هاهاهاها
لمخدة
تنوضي
حدرت
زك
شبعو
##حف
##خبي
##sa
معمرها
والبر
##دوة
##اصفات
##ازرق
وشعر
يستوعب
مختار
##يلتك
يدعمني
فكرو
متعص
تبعوه
انفاسهم
by
فزنقة
كافر
المود
ولاه
لقطات
وختي
مثلي
##and
##فاظ
بسبابها
تقودي
صيفطات
الاجتماعية
داوية
شبح
لتش
لندن
##ونز
بيزو
ميخي
يقاد
وكيع
ماقل
كدب
قواد
لبراهش
ﻛﺎﻳ
فملامحها
بكره
كاز
##رحها
احوال
##هيوة
وعيني
حسان
مقصدتش
بحلا
بحيرة
##وبش
تهتم
فتجاه
غزالين
التنمية
فوذنها
ho
vu
حاوطها
يقي
##كنه
فالدم
##بوهم
ويفك
القادمة
تنحس
ريش
مصدع
عايق
لخويا
فهمتو
كلامهم
لاحض
لسماء
صحبتي
فدارهم
كنعرفها
ذاكر
غمزاتو
متزوجة
باف
غرس
##واخ
والبو
العصى
البديل
التجنيد
وعار
شفته
مجدا
يدومها
ناريمان
مرتافع
زيرت
مفيهاش
شاركت
غوتي
##نهار
##يض
الستر
ديه
كايهضرو
برع
انتظر
الامار
غاتبقى
##زوجي
لشارع
مشتركين
فبيتي
طايحين
قتلتني
التصرفات
ابطالنا
الاقتصاد
جبال
دلي
ستو
لماء
مافيك
##خلا
بالحشمة
تعم
ماتقولش
مقلتش
تشدي
##كسار
عمركم
الموهيم
##oub
القرطاس
جامد
##غطية
##كروا
كنقولك
قودي
مافاهمة
زايدين
##مزيان
##23
مشجع
وتحس
نتلقاو
وبنتي
نعوض
وراسو
ماعارفة
ماكم
صحاح
فالعرس
موجودين
sim
حاز
شاحب
يفرق
##صافي
##ضام
##غيت
ديلي
العهد
بغل
وتما
تنادي
الرملة
يدينا
تزيرات
جلسنا
طيحي
وهاديك
بالحريق
بالكامل
الحيوط
بالدرية
وزيدون
##ith
##طنعة
خزر
لجب
مضحك
الفكر
##درس
##طيحش
##حيلة
اعتراف
وخت
مامتيقاش
تشكر
غايمشي
فخرية
خالك
لورين
##فارق
واكلة
كعكة
لقراية
الاضواء
##ونتير
الصابون
اطباء
pl
اهو
لسرير
كتصرف
الجاه
مبلوكي
خصر
يدعي
يجاوبها
جاوك
حرارة
تفهمو
##ماغها
البوابة
oum
متحمسة
vs
##مشو
##اوري
كانق
كانظن
بالفوطة
اخا
اواعدي
##خلينا
تعدب
القول
الصباغة
التقر
##هادشي
تغدا
التسجيل
الوجهة
اديرو
تناس
ترفض
شافي
شاط
نضيع
المربية
##اقبة
ايخرج
اعص
بجنبو
تجاهل
##والا
حقير
تاكدات
##خيص
تصرفي
تكلمات
##زراء
دجاجة
بالحر
وبل
لكاين
نساك
تخلى
##طلح
##بارات
جبهة
الاشارة
سبقو
مرضات
خيار
لوجع
بتوثر
اضافة
الشانطي
صونيا
ختكم
هانين
وﻻ
وزة
ليسر
فيديك
##اكيد
##اخدي
##رفت
وتهز
السرباي
الصين
تفعل
ومعاها
تايق
حروف
ماعندناش
المجلس
نهارها
توقفات
ايمانك
يمص
فطريقها
حصلت
حلفت
تشحنلي
it
صاكي
كبيدة
##ﻨﺔ
##ديلات
معاية
##ربع
الحاسوب
##ميوه
وحلت
خليكم
حرم
كيبكيو
راية
رمش
عشي
كتبي
الحك
ايف
السهولة
##قاتهم
تبلات
ونته
فرنسي
نسولو
نيليا
وصلتو
لصف
كريشتها
##amila
اصدقايي
راموس
مضرب
##نخص
##ضوح
كنف
تفاصي
وشرب
موهبة
لفرحة
لعندنا
تهنى
ويعطي
والتع
البسالة
عونوني
يظ
##46
معناها
مشوش
الاسد
مدري
##قدري
##عجبكش
كوبي
طوموبيلات
قاليهم
##وندونس
الكوافوز
تخنقت
اكتشفت
ينوضو
روي
##ودو
##احتها
الدروس
الجبال
وصلك
تفضح
تفاعل
بينكم
تسط
طلعاتو
وفل
تخشى
##قهاش
المواد
حشمان
شريتي
وذنيه
مطلعها
فحوايجو
##ولتوريز
الامازيغية
سرات
واتو
ودها
معين
##ستور
الفني
القن
تسامح
اعظم
عزيزي
كملنا
منافق
##ada
120
لیه
العقبة
تقطعات
خمسين
صن
كالي
يطلقو
##شی
##عبي
##ﺣﺪ
بالسر
امالك
ومقاد
##لعو
تعوج
لعادة
##منين
ميكرو
عرفتيني
كنتيق
زادها
المتعة
تيشرت
طفولي
فسيارة
متنساوش
صبا
قادي
گي
الوت
الارو
العمال
غيرجع
تحميل
##كتك
وجاد
الشمكار
لعايل
تيخ
نصحك
الاحيان
تستمر
باحراج
خفية
ماشفتيش
ins
وهدشي
gamer
فمدينة
ملوي
##ثو
والديا
البه
الفد
يديو
ماتخلينيش
حدك
نسافر
يتص
جميله
كتحرق
فهميني
ومعارف
تدخلات
اروبا
باحساس
ورجال
غوبش
##awi
رشا
يگ
##كز
##فكري
منبغيش
امرها
تبراي
يعقل
لحلال
لحلوة
بتنهيدة
ديرين
##مشم
نزلني
##جاجية
الخلفي
لمحمد
##قطعو
ناخذ
الفورمة
dz
طاولة
عفو
نري
هhashtag
که
وقيتة
نتاق
مسدودة
##هداء
مرون
##لقش
بقلبي
مجو
تشر
تهديد
تلفونها
حقنا
شكادير
سولني
بنكهة
الدعارة
سلامي
صايم
عاز
ياد
##كني
الماط
المهيم
كتهرب
العادي
القالب
خرجوها
اهلك
منوض
الاماكن
جابني
لامريكا
فلرض
##ماركي
لفيلم
العماري
كتفكري
الطويلة
خفتي
اهداف
كيرجف
cas
ستح
لوت
الالا
كتنعس
بعقل
تخايل
وكيحاول
الكيسان
متحكم
مادرتي
فدراعو
سايرا
ماكرهاتش
ناوين
##حرق
ويوفقك
الجرحة
حساسة
الطالون
افتخر
ينش
فموضوع
قصدي
لبيتهم
مطبخ
المقص
قطرة
يماك
فودنيه
حكيمة
مجاوباتوش
الصندوق
ca
حضور
يرك
##ادتها
##زيع
احترم
مبقى
تفرك
ماتجي
ودعي
اتجه
##نياء
ترمات
فتلف
ساعتو
عودات
فضح
رمى
##ويسرا
سامحيني
pe
##حلف
##غادي
##ايض
كتعي
كتاخد
انز
##روان
فالارجاء
اختها
ومرات
لعزيزة
لمطعم
##وحية
##بدع
تشجيع
عفوا
فجسمها
كايتع
النعمة
فلبلاصة
ونوضي
دج
طليت
كيبرد
الحدي
الحلاق
امسيو
مشفت
##انيتي
تعلقات
##اضرة
مبق
##فسار
##حيلي
وقفتها
وقفاتو
معاكوم
تمثل
بتعني
ضارني
احدى
سبقها
جوني
غنوض
وزيدي
##em
##ونطير
والقلب
فالدو
##معي
ويبقى
كاترجف
##منع
قدامنا
تجيو
##ini
قبلاتو
جبينو
غاس
غلى
##قصو
كيصور
لعرب
بردي
اصلي
نقبل
ملحد
طولات
نهايي
مشاعرها
cl
do
mou
تاض
خيف
##ﺑﺎ
كاندوي
##زيون
الفضاء
ماتاي
مغنت
يحلو
الشيخة
ازرق
عاقت
لكلشي
العراقي
مجيب
##اكمة
ماها
يعجبني
كايف
تنترات
اتبقاي
موثر
عطيتيني
وغا
يهديه
فالسوق
حولات
وديع
حزام
وبتاسمات
بناء
لخلف
الاهلي
##اسيم
##لوين
بالتي
نتكلم
محاو
نوب
نزوج
لغزالة
ماكانوش
ويدها
ماوالو
##وفرطوطو
كتزرب
حمو
##امحة
كتوح
الحساس
وقص
##مرت
كاتنهج
هزني
لكافي
وسارة
ضحكتي
وكتقول
بهجت
وايلا
##سلمو
فالفراغ
بادن
250
توترات
الانسانة
تزعزع
تشهيت
##نبك
##ﻮﻥ
##اعش
وتابع
وراكي
لفجر
تهدي
غانرجع
دورو
جبداتو
صدمها
رشاد
مهرس
##شمو
##يفة
##بكم
##ريل
وتبدا
وحوايج
##حيش
الغات
يشارك
نحق
غايبة
مستمتعة
تكاها
مكيعرف
##اسيها
تدق
بثقة
##حتارم
الرفيع
قميص
سنتين
ضورة
طاف
نونو
##بنات
حتاش
وتمسح
وحبيب
##لمت
وبكل
الكوفر
كاتبة
وراقي
المعلمة
بوسي
هايدي
لمرضة
الكاسك
سرحات
الصحيحة
ala
ساهو
صبي
ورف
##سح
##نام
##يتوش
الحجم
الحايط
الدقيق
اسلو
ماتسوق
غنبقى
علما
غاتبقا
دالف
شداتني
كاسكيط
وهانتي
قولتي
لمشكل
نموتو
هية
يكره
##ندس
اخلا
لبغا
##اليو
كايزيد
براي
تسع
تسحاب
بحد
غتموت
صدع
الدرهم
ازبي
تلقات
مكسيري
قرف
وی
منضر
ديمنا
كانع
##زيكم
##لمش
لعملية
تسجيل
حيات
وهل
مايحس
بتلع
كيتهز
يقدم
كرامة
المشفى
يحفظهم
كبرنا
كاملا
يوليو
كيعجبها
شوب
ضرات
قان
##سلام
##غرها
##اسمو
##اشرة
##شيخ
وتنزل
بنظر
رجولتو
الداو
الصال
##اليات
لحظ
اصبر
نفخ
طبون
ضيعت
يتعامل
العشير
نضربو
29
عبلة
كيهبط
اوب
اوجه
مرسي
لحانوت
الطرح
##سوه
##رقت
الرجولي
ومعاهم
سيدتي
بانتلو
صحاباتها
الحراك
لبعضياتهم
الديور
كيتحركو
نسمعها
صرطات
الشوفات
وريحة
زبالة
##ici
وروح
منبقاوش
كتفرنس
انكي
مازاد
كنكتب
تبار
ابارك
كايتق
لكبيدة
نوبة
وليدك
كيتغ
نجمعو
الموسي
يشوفني
اسرع
الاستقلال
نكدب
يرضى
اﻹ
حلاوة
حلقه
دماء
ذرية
##طاني
معرية
العف
ومرت
متافقة
كاتخرج
مغفرة
مقدم
مامن
نفسهم
طيحة
وكلسو
فسبيطار
##ans
شغا
مخليا
رمشات
المعجبين
##سلة
##يمة
##فاق
##💃🏻
انانية
كايغ
وعرض
لقبر
##اركات
##تراب
تصاد
تشوفك
سوزي
باردين
يقولون
##صحى
كيرمش
وخلينا
##مونات
ندمات
عنقتو
دماغك
ماتنسايش
بحة
مبرز
##طهم
##سلي
##aha
##ابلو
##ينيات
نتما
الشقراء
التبو
##اينو
ابليس
فينال
لكارط
يساعد
تشك
##رسل
فبحال
البلدية
بخص
جفون
جويس
سجن
نل
##تاين
##اورو
##ga
منض
##تولي
اوهو
اشفيها
لبوك
وبينها
مساع
تفلت
النادل
تسرط
مقنع
تصد
طيحو
خاليد
مولاتي
شراو
معقولة
الباتول
اموت
صفة
طور
يوت
##لاية
##لاعب
ديفو
##ديوا
##ونطر
بناتها
واختي
الته
الكولوار
مكد
##جبان
نحلم
نختار
طبعو
حاضرين
دياولك
ok
بوف
فاني
##هدو
##هزة
##قرام
المخرج
تعنق
لحضات
بشوق
نشوفوها
غانخرج
مستاعد
تدعموني
بوسان
خطواتو
خشاه
وحداها
الحسابات
الگارو
وعقبال
المثلين
تلقاييا
au
تضع
##زانة
##😍❤
##التك
منوا
فالكون
الفتح
وتبقى
متفكر
وحبس
##عيبة
مبع
مقلوب
اتزوج
لخارج
عجبوني
##نعسي
ركبنا
وبالنسبة
يفهمو
انصحك
يكملك
كتهدري
غیر
كدق
نبيع
والهما
عندوش
كنك
##بوم
##بوعة
##افيط
الخبي
الشوار
غيح
اهلها
الطاليان
تسجل
تصي
مانشوف
المعاناة
لنص
حنحن
بالسخ
الكونت
واراه
تفيقي
هولندا
جغمة
كيلت
فالدوش
ولادة
اخد
الكد
تسن
##فرات
يسلك
##بكا
زيدون
متوحش
سداري
زواجنا
السفلي
جنية
المطر
##ندب
السور
ويط
التب
يعاودو
نوص
##ضيفة
عملي
بلخير
فنقطة
الحاجات
متوسط
ربحات
الضيوف
فالواقع
ترق
ذرة
غطا
غراض
والحر
##اخي
##نوها
ايوى
وحلي
خرجة
تقضي
##متعو
##فتاح
##يهش
##تناق
لمستوى
فجيهة
العربيه
تاخدو
شور
##صالات
##ph
راسم
نتكلف
الشماتة
الشعيبية
مكبوت
وشخص
الانظار
حلاتهم
ايدين
شواقع
لعدول
at
##اتبة
##اعية
الحديقة
بعنوان
ولاء
لعيا
الكرو
تقديم
##بغيها
بعضها
قرطاسة
اقدم
نجيبك
كولا
يسترك
المقابل
مخليه
وتوبة
لالالا
تجبدي
سعودي
ايليف
وسيف
ياش
##خبات
الموش
##رفس
ولكم
وتقدر
متخليش
باشمن
احر
القرب
لعينين
مسموعة
تيست
فعينو
##نانة
ماكس
##بغيتي
يشعل
جمعاتو
طيور
قرصها
كتعصب
دايخ
بالعين
حاطها
المجهود
صرخة
خاشيها
غليضة
المونطو
ويرزقكم
سيلفي
رصاصة
قرد
##زاتها
والفر
تعذ
نتبادلو
القطار
##ربيه
##ملين
وفكل
بلدية
نشربو
##حومة
لشومبر
##كارا
##طلبو
طباسل
الجيهة
لكتفو
فلكحل
رابح
شجاع
المعتادة
سلبي
نبع
##vi
الاهداف
##افورة
##بيقات
المحيط
##اهدين
انغ
##يدين
كانضن
بالمر
الفولار
تعطيك
نتاب
الشفار
كايمشي
مرى
شافتني
تمنيتي
الانثي
ضربتي
فوطوي
مستورة
بطاطا
لشعرها
لموس
قاسحة
##هنم
دلما
بالذات
غضبو
سابقا
حبوبتي
مفزوعة
بفعل
غري
##fa
المبلغ
والكر
السبان
وجميلة
اسالك
ونكون
##طوال
غيبقا
المغاربه
##وزع
ورى
##بغيو
نقضي
الاسلحة
المعج
طياب
دواها
يجوز
عباية
خديتو
مادارت
يصير
ضعاف
كيبقيتي
وسيلة
شقة
فمام
##🙏🏼
كيبيع
كتدوز
وتلعب
ويكمل
وعم
##شوان
خلاصة
شدتها
فطنجة
جهتو
قاطعهم
موسخ
موسخة
الحرقة
اعتبار
فالشهر
وعقلو
بوفرطوطو
كتركل
كتنفخ
والض
##كلفو
الوزراء
مخك
مصي
اولادي
تغلب
تالق
جنبي
الدولي
كنشوفها
تندمي
بالاسود
كريستيانو
عقول
قوان
وارت
##تهوم
##سال
##یب
العوينات
البولي
ولان
لبلا
تعنقو
الجنوب
##برش
ابع
كايبكي
غيولي
هزوها
وفهاد
مايع
استعمل
خصلة
جابوه
صحافي
احمق
الحلوف
كدفع
عتارف
ملامي
الوجود
فراشو
تبوسو
المتواضعة
كوسطا
bra
تاتش
سوك
ضفارها
عذب
ﻋﻨ
##bo
كيفي
بالسو
لمدام
تقب
##عودية
لدرب
مخبين
لجزاير
ترن
وجهوا
مغربيات
المستش
دعمني
بسميتو
الرسوم
ايشافيك
المونديال
الجمعية
تظ
تالي
زمي
قنيطرة
##راييل
المادة
بالقر
مشتاق
وبار
ودادي
مغز
ورقية
##بحت
ومنهم
لصالح
نداء
الرومانسية
خيوط
مضاربة
عريض
##ميزاز
يمهل
محساتش
داءما
فالبالكون
48
حبات
##مدو
##ure
##ليز
ليو
ديلك
##افلام
بعج
وحاسة
محافظ
وعا
وعطات
##فساد
لحمل
##بغيهش
كولون
##قداو
صباحو
سيروم
صاحبها
بلادها
وحطت
الانتظار
كاميرات
كنسمعك
السعودي
صبعانها
فحضنها
وعنقاتها
حضرت
بصباعها
تيتيزة
وحبيبا
اظ
تهو
درج
شالها
ضحيكة
مومن
نذ
##حصها
##فلو
##ji
كيمر
المقر
##ماصي
##وفق
البق
بغر
امضرا
السنوات
##راط
لقاك
الفيست
تغر
##جريدة
##ارجا
تكعدي
بارزين
يرزقنا
وتكلمت
يزوج
##دبو
##زقو
##بون
##هزي
##الط
##قاتلو
الخجل
وسدو
السياسية
لورقة
مرتضى
الضابط
كدبة
##شمتيش
غلطتي
مخلوق
التران
غيدوز
رماها
ويسعدك
جدر
نينا
وكره
يكر
معينة
كيكتب
اناديا
البص
كنغوت
هواوي
الفاش
السوتي
احط
وحنات
ويق
علاقتها
وبغيتي
##طوان
مسدودين
سلمان
فحد
مولفين
متوجه
تاكلو
القوانين
الشافعي
الزيادة
انفاسه
زورق
الصيام
حاير
يركب
##be
فيوسف
##ايمة
كتكلم
والاج
غيرت
اوما
##ميص
##لعها
تبقاش
احتياط
الصعداء
الكح
تشاور
تزنگ
ملقا
لوالديك
تنفخو
الحارث
wa
بولد
تزيان
حاكم
ناهد
يكتر
##مينة
##امد
كيطيحو
العقوبة
الفستان
تاهما
وقفتو
##ارتهم
حبيبتك
رواح
بفلوس
الحمير
ماليها
##باكية
تقليدي
الحلويات
ثابتة
زغبة
هوف
##گل
##قفة
##ظيف
حتانا
وتفرج
وماف
ماتخرج
مغني
تصايب
جودة
لجمال
صبعي
صحتو
التوقيت
##دروش
نكوليك
عتاب
فالتلفزة
اتك
جيتك
لخل
##عال
##جهد
وتاهي
نتحمل
محمر
##ويها
اهن
##وزينا
الغول
لهدا
مجربة
تمشاو
بحجة
لخاص
##لعبش
ينعسو
سكوت
تبعدي
الادن
الديب
هربتي
طفولية
غضبانة
فكتفو
بخطوة
ثلج
راض
##اداش
##اكشية
المعرفة
الحديدة
وجوهم
الشمش
النشوة
تشبع
ديروا
الاخوات
غانبقى
##لاهش
فداء
شادية
وكلهم
طريقه
متواضع
سداتو
حكام
كوراه
بوجهو
فبنادم
with
شافيه
هيدا
##يطة
##خون
متخلي
متجيش
وحلو
الداودي
الصبع
اتقي
افتح
غانش
ماقداتش
كتسولي
البروف
تقوليا
لمرض
صراع
لكرشها
رفضات
میں
تامر
تديرو
ستس
فولي
يهود
گلتي
##ابس
المزي
والذ
متاجه
نتصرف
كايبقا
نعاودها
ديرا
المعطي
وصلهم
وماق
ماداير
تبعهم
كلوب
ايامك
ايامات
وليداتها
الوليدين
الترابي
فالغابة
اثناء
غامق
زلزال
طان
لاوية
##جاة
الالي
والدم
مشادين
قالوها
تسخف
بشهوة
موتي
مكيهمنيش
خارجا
نضاض
يكبرو
الشخصيات
شدوها
بامكان
بوجها
شهادشي
الضروف
sur
نخل
نبين
##شكرا
##شيو
فالطب
اليوفي
##معات
بيب
فرد
وكنا
تخافيش
مفتاح
لصح
كتسناها
تابعهم
تحلمي
كيتسناه
خسرو
نستاهل
عاندو
هخه
ضف
يضع
##سرها
##ريهم
كتكسل
كانفكر
##اخن
##سيال
##ميج
##رحب
نعيا
براك
نقزت
الاحياء
عشنا
كتعنق
مافكر
كتخربقي
باتول
اخوانا
عتقوني
الشانطة
النافذة
يموتو
##🇹🇳
فالض
فالهدرة
كنبان
لبه
القاميجة
لمركز
يعود
كايمسح
وفيا
تخطب
اجلا
تغطي
سيرين
وطال
الفراقي
متابعينك
كتكدب
وكملو
عبيد
الانواع
المحمدية
wo
طوم
يرت
##go
فالسرير
##اريها
تسالا
دراسة
وخى
فقال
يقنع
##عمرو
##بينوار
واعدني
##علن
ادعموني
رقصة
بالحرف
كيصلي
لیها
فخاطرك
##تاصب
البرازيل
درك
سدت
##ﻮﻟ
الاني
##ابير
والرو
تبوري
مسعودة
الواق
الوصف
الطبية
انتقام
الغرف
مابانش
قربنا
قربتي
واعية
لامر
##صالحو
المناطق
شناهو
منقضة
نتحركو
تضور
خضرة
شيا
##مونة
الجيب
الاطر
كانهضر
ولفات
كنغ
الفولون
املك
مشاهد
وتبقا
وتخليني
ونعرف
غيع
##يريتي
وهضرات
وكيل
بطف
بواط
لموهيم
بديل
طلقاتها
خنشة
لڤيلا
الاردن
زاع
##وكي
##تنيش
##زقة
##زينة
كنقوليك
الفشوش
بيما
##فيس
الشجاعة
##لتكم
تيحاول
##ترق
قلتليك
القرايا
همهم
تدعم
يخرجها
عاى
عاطيه
##tique
نتواصل
حنوكها
da
tu
لمعو
مدها
##ساو
كيقتل
بيلان
الجراة
الجناب
##ضرش
يحرم
فرطوطو
##ترافية
الغريبة
##عداد
فعينين
تشغيل
لغير
طيحات
هذو
##ise
معارفينش
الارهاب
كيتحل
قلوبهم
لفوطوي
##مقراطية
med
اطل
تلمس
رن
ربت
سها
طبط
عاري
کا
##كوب
##صبي
##ايهم
كتنق
وترجعي
وحنين
يعنقها
يتب
ماعمرك
هدك
لفع
يقضي
نشوفوه
##اويح
الاباء
وتوحش
صديقتي
بتعنيقة
صا
##جيا
##ارى
معرض
كتبرد
الخمر
الشام
الكعبة
كايسمع
وعمرك
ودمو
اكيدة
مستفزة
شدى
بهذه
ادري
لشباب
فدارنا
تابتة
بثمن
الكتاف
ربعين
العقاب
وتقدم
بحيث
فطوموبيلتو
الرفيسة
العمومية
تضيع
نطر
يبغيك
انهار
الحبل
##كلسو
الشوط
لعريس
غيسكت
ميمون
النقل
ودنيا
سمحات
يقراو
عداب
سترة
##ينوط
بوسط
كيخفق
خيالية
واكبر
الربعة
فالبنات
الوصول
السلطات
غلطات
الويكاند
gi
تديه
دفي
دهب
قوت
##ﺮﻳ
##ابون
العط
كاتبين
##ازين
وخالتي
وكفاش
مصغرة
الاستر
لخاتم
الانستغرام
اليومين
هضرتهم
فالمص
انشر
عواشر
الظالمين
ﺍﻟﺒ
فلحضة
نشريو
عارضة
الملفات
##14
الرف
ليلا
كترو
انض
##لود
##وقعو
تبني
نتبعو
##مشية
##لقك
مغطين
ورغم
لهضر
##اشيات
بالحجر
متبعاك
cop
المطلوب
مراهقة
فدماغو
تنزلي
اجب
ركي
فارض
نگول
##عطلش
##ﻘﺎ
كيقيس
بالعم
##اخلة
العالية
ومابا
الصمطة
ابقا
ماتفكر
##بطولة
كاينهج
##خصك
عندكوم
نشوفوا
لجنا
فشركة
كتحشم
يومي
لنور
##hat
غالين
تصرفاتو
كلير
كادوز
ومشينا
كايبانو
منظرها
وزوين
عبدالرحمن
جمد
كلاش
ملب
نبد
البولة
اتخ
اتكلم
تصورو
خليوها
الايك
فسوق
##ale
كيقولك
بالصبر
تجمعات
##chid
وكنتمنى
صادقة
ترحب
الفيروس
مساليش
##توحشك
فالاحمر
ساعدوني
حجم
فولو
نبرد
يحك
##صحك
##75
##76
كتجاوب
العلبة
لاطاي
ويخليها
القف
##tan
ورق
مجمعة
غتشوف
غانشوفو
الفرص
لصحاب
الصحرا
خلقك
حكاية
اغلبهم
مابغيتوش
ودوزات
الانوثة
البنوتة
##لقو
##ثتها
##🇸🇦
كتمتم
##ماها
##اعا
فالور
اخيرة
اشارت
متجي
واخوتها
##اطعو
الجلا
مسول
الاور
الاثر
##اركين
نوريه
يتنفس
يشفيه
فيكوم
نصاب
توحشتكم
##صوط
##راسات
فارق
##بيعاتها
عنيبة
jamal
اكم
قرو
لضحك
يتيق
##ندية
والحس
البوش
لبين
الخام
محطة
ماتغ
مقصح
عمارة
الرسم
موتو
باقصى
بتاقل
فتحي
##لايلها
حسابو
تبدلتي
لیک
ولبنات
كيضورو
بناس
صادم
##تشي
##ذية
فالصراحة
كنلعب
لبك
##ونيات
عملو
##عدى
باسهم
ضحكنا
فبراير
سرط
شهقة
الكرام
كاره
مسكينه
طولتو
الشرعية
عويناتك
حكمها
سيناريو
اعوام
سورفيت
ذكري
يمت
##مزة
##داخل
##التة
منعاودش
وتجيب
متست
وباك
مكف
لكنت
وليلى
بكلامو
لايغ
مكيشوفش
بمج
البيع
الضح
العياشة
فورا
نتاعك
وابتاسم
du
ضامة
##اقر
وبط
لحماق
اهء
الرقية
بنتكم
حميدو
صدايف
تالع
لصال
تخلطو
الروبيني
المتصل
مرضاتش
##نشاط
الاستعمار
التفاهة
بالاضافة
ali
فدم
نموسية
##دحات
##المات
##انوية
كانهم
##اريه
شعره
مجنونة
مامرتاح
باسمها
##بهات
فتنة
ابتلاء
لفرصة
البطاقة
ومكاين
##👏🏻👏🏻
وتبسمات
الداودية
جاز
دقت
عناق
عقوبة
##زء
##زعات
##هدة
كتصب
كتهبط
وبسرعة
الشاعر
ونظ
مالقيتش
مانعس
##وتيك
دالخ
##مارين
الاشقر
بالمناسبة
خيالي
يعرفها
سميطات
الصدفة
نطلبك
لابيسين
طاك
كالك
يها
##يهم
##قوف
ديمارات
كيوجدو
تبور
احن
الصيد
ابد
الكهرب
وعليك
النشيد
وشو
يقطعو
لسيد
صحا
كثرت
##ink
فريدة
تلقايه
ساهيل
رتاحيتي
ربحو
بلبكا
وعرفت
منفخة
حاكمها
جليلة
كوف
##ﻴﺔ
##افير
##هومة
##كلمات
##راتش
نشفو
مكتشوف
مكتجاوبش
داخلي
##كروط
كيحاولو
يمثل
اضحك
توي
##اركي
بالوقت
بالرجولة
مشعر
الخارجي
كانتش
تيشوفو
تصميم
جيو
##ضوبل
لفعة
رايكم
مكيبغيش
روان
##ano
نظرو
داخلية
شرباتو
الانتقاد
يسمعك
عوجة
غندخل
صفراء
ana
وهداك
بتشكيك
عرش
##حسو
##صارة
##ختي
##فهوم
والما
فالاع
اخليكم
بعت
ومالي
اشنا
الدب
ونخلي
مقدمات
يتبت
عطرها
حالف
خطاب
تحركت
الطوب
والتنمية
نتعاونو
صراخ
وافقت
المتحدة
بتصرفيقة
التركية
توش
ظريفة
فله
قمع
##24
##غيرة
##ﻬﻢ
##اعه
البول
الفاز
بغنج
ماشين
بلايك
ميمة
ريقه
تسافر
بتلاتة
يقر
تغداي
المعاملة
مكتبغيش
الاحتياط
مابغيتكش
ملص
الروية
نفهمك
وفرحان
لكوميسارية
راءع
استعمال
ثلاتة
علة
يامي
##st
علياء
كتقيس
ماطلع
الكاد
وعين
وصوتها
حسنات
تسوي
الزينة
الرع
حلهم
تكيت
وكلست
وسطها
تبعك
تبعدو
##نايفها
##خبارك
يحبسو
زبدة
ودفعها
الحموضة
bla
جاع
شجر
ضل
عجيبة
ملاص
يذكر
يهدرو
##نجر
##تير
##جلو
##ظرو
الغيب
##رجر
بالث
اليالي
مشدود
رجالي
الصباط
لقرعة
نسلم
##اكلش
الدولية
رسايل
الاصلي
##ینی
تيدوز
لكونط
الخضراء
ro
فاد
##صين
ديتي
كتلوى
فالكر
البقر
##هودي
الفري
علاقتك
محر
حسني
تقاشر
لحفل
لقلبها
يته
وخشات
صغري
يدعم
مانش
فهمنا
خالية
##سلمة
لاسلام
العروس
ذكرت
خباري
وساكتة
قايد
##الام
ديت
##بيحة
كيدر
فالمانيا
لعار
ماتقولي
مجانا
##سوارات
ضربتو
##طلحات
فحص
فطاكسي
جبتك
مطلوقة
المدنية
دفن
ملقيتش
صابون
المباركة
العجينة
##ديريكو
توازن
الصالحه
الاجتماعات
الامريكية
ذيك
كياخد
والتح
اوقات
متفرج
زوينا
##اريب
فرملية
وكتحس
رايت
بودي
ماغديش
الابن
متوسطة
تحسب
تجاوبني
يهمل
وباغا
السيناريو
ديبلوم
لوسيفر
فهل
وتيشورط
##شينا
##ﻴﺖ
##صيري
معروض
المرك
بالقرب
##داهم
ولاخر
تحولو
الخالة
يعبر
ميدي
##جبك
لقديمة
الرضى
الريسطو
تكبري
يجمعو
ارجاء
نظاظر
النوبة
الظن
كادوي
بضهرو
تافافات
##جاراو
نمشو
كوكب
داد
عظم
فارجاء
قلوة
كضرك
##لايل
فيمن
##ايبو
نتص
وعمرها
خرجتو
تيسمع
انتبه
الغداء
فعرس
ماكيت
باستسلام
المشاركة
نشدك
مكيعرفش
##قاشر
ساعه
رافض
لشيخ
##ورطابل
##بغينيش
مخلوعين
متسارعة
التكوين
معقدة
فالواتساب
متعلقة
حاو
يليق
##سنوات
##gول
##لاهم
كيبعد
بنفاد
محاملاش
اعماد
فوقما
الرزاق
موصل
##عدل
لدلك
مجا
فقراء
##وصلك
##مقني
##غمز
والعايلة
خيب
العروق
المنافقين
الصداق
قشعات
عتقني
##ght
karamila
سحب
##هالة
فالفو
مشهد
الصحر
لمون
##وسخ
تفاحة
برقة
وكما
تكدب
واياك
فتون
يوريك
##ance
باستفزاز
دعميني
اولادك
يضرك
yout
مشفتيش
تشوه
العضلات
مسافرة
شوها
قهق
##25
فيديريكو
كيدار
انتها
والعين
##اومة
العطاء
##دوخ
##رحي
لبلاطو
اسما
الطونوبيل
عمتك
يتن
وهرب
تجارب
افعل
لايهاب
لسب
##زوجش
توحشتيني
ندفع
فكرتني
قاصدة
غمزة
فالتليفون
لعيب
تافقو
عرقانة
منفوخة
##صاييات
تريك
حكر
سماء
غرب
ليز
المشية
فالظ
كنبقا
تعوض
ويبوس
ونض
كاتز
تقار
وشر
نقطعو
عارفينها
غايوقع
الرجلة
طيبي
فايز
المحق
واحب
الرواية
شريف
فالخارج
صيفية
وجمعت
روتين
god
راصو
المفضلة
he
ضسر
قلو
نين
😘😍
##طاف
##اكوزي
السابقة
تحيدو
لعش
ماتجيش
لفم
فجهد
كتسب
فتليفون
لاكان
وتحاول
خطواتها
حطوها
اسلامية
البطلة
حادثة
الستاتي
احتراما
واليدين
المحترف
جروح
راز
سا
صلح
وک
##جني
التيشورت
ليكون
##بيوتر
بالهم
شيطانية
##زيات
الساعات
ميجي
وسو
مغر
فراج
##مله
لخاط
##بالك
زوجته
باركين
الاصلاح
السويد
تعيشو
تجاوبي
يوتيب
جوابها
شها
صاط
مضر
##لالي
##pha
كيفيق
كتمر
البصر
اخليها
##rld
##هيبة
##لسق
تصح
مصايب
تهنيت
##قته
مكتش
عشتي
رمز
تنساه
السخط
لاقرب
بتهديد
وفلخر
نوفل
ڭاع
##ﻴﻲ
##ضك
الراضي
##الش
##اتنيش
##نابي
كيوقف
الباير
البانيو
ومني
محش
تقصح
قالهم
مالية
عرفة
لفكرة
غاتس
فضهرها
المستقب
لمساتو
شرفتي
هءهءهءهء
الزوامل
والاخرة
شجعوني
صاوب
##co
##👌🏻
فالنا
ولس
متم
بزط
الكيت
كبيرا
خصوص
##بيلونص
##باتني
صباحا
قصح
مافراس
كيشرح
قيام
الاطلس
الفيرمة
هيهيهي
متعطليش
تضر
لاهل
گارو
الميدان
كتبر
فالجي
البنج
متقولي
ويعرف
مسخوطة
مكانة
وسب
مغير
بشرة
ينصح
يخي
شخصيات
سريرها
تابعينو
موسعة
صاحبتو
##ore
قتلتو
شوكة
نوقفو
##طنع
##غرام
##gle
##ريحات
انبقا
##اعدها
ايونس
##فيقات
ميع
وساكت
لكنو
الزايد
يتلاح
يتكلف
ارواح
شربتي
خزرات
بتهكم
جماع
كالو
فيزا
بالبيض
البلو
البلاء
الفنا
تحدر
تبلا
ويز
القنا
كيفتح
تشربو
تواحد
مصطنعة
يشجع
ولادكم
فدارها
حبسها
مداتو
باتريك
وبالضبط
السعوديه
يبغيها
##فريتة
نحبكم
امازيغي
مبالاة
مخربقة
up
مک
نمسح
نلقاه
##صرة
الكرا
##ادى
الملايكة
العامل
اوج
##وتين
##بوح
والهضرة
تقن
وسكتي
الرابعة
مايش
لختي
ولدتي
نيزار
صباحك
كتعاني
مطولة
جداك
تعلمتي
كندور
شانطة
فبعضهم
ينصرك
dh
بندم
دان
سيرة
صريحة
##طلو
##اغط
كيهم
كيهمني
كيضرها
وتصرف
تحجرو
وجزاك
التلمي
غيجيو
غيطرطق
يتبعها
لايام
الشياطين
لبيع
تعليقك
رافعة
بالتع
##هدرش
وخلاني
شابك
سلطة
قبيحة
مامسوقش
ديسلايك
نوصيك
لافيست
ساحة
##ارجة
##بيطال
##احق
كتحر
بالنا
بالضرورة
ولعب
##اديه
مبعدة
غيس
مزنك
##فرغ
يسمى
مجروحة
يفعل
الموضة
حبيباتي
بايدها
كيخدمو
زواجها
الادريسي
محلولين
يسترنا
فاهمين
وقربت
تعطينا
##جليزي
كاطلع
dy
hal
سرباي
صلة
عرام
وكوني
##عافات
##بيلي
العريض
##كله
تعدا
يعاوني
##منها
بسر
##لهث
لغابة
تكب
كيحق
واسماء
داخلا
مغربيه
غالطين
ملامحه
اعتذر
ضواو
مكلخين
ثلاجة
اوليد
خسرتي
احياني
يتفرجو
rachid
دالحوايج
البنيتة
دش
غطيح
كيصف
##وقية
مرونة
بصلة
درع
وكبر
مخيف
نقتلها
نشبع
فكانت
فاقد
تسمعها
الصحية
والشعر
وخليك
العقيد
الاكس
وضربات
بادلها
سناب
لبنتها
خبطات
اتجاها
مصدقاش
التمثيل
خني
##طالية
##سوا
##يص
##جاها
المتق
المومن
لبلوك
الشرفة
تفت
ودنيك
فردي
فراقي
##هرني
حمادة
فشفايفو
حركاتو
وايد
يستاهلو
سكتينا
واحل
بيدين
تلقاهم
يقوم
فكتفها
سبوع
طرد
هايل
هاته
🤲🏻
##يرتها
كتلهت
بيضا
نتى
رجلا
بدرية
فعمري
قبلتي
مامت
تشهر
مفار
كتعامل
الحماس
السبعة
محتاجك
كيجيبو
جنابو
القبضة
توسعو
ترسم
دياولنا
السحور
واتوب
راع
ركن
الاهل
كتط
البغ
كنلقا
##كرام
##ميهم
السطاج
متحش
وجابت
كاتقرا
ماتوقع
##ديوها
نسالك
بشبه
##قدمو
رايو
فالبنت
ونديرو
ثوب
حرت
شارفة
مضور
نام
##يرني
بالدعاء
العصاب
متمن
التازي
وصد
كنتخ
يشبع
لفريق
اغفر
دوينا
ماقصدتش
تنهج
وكنشوف
المجهول
نظاظ
ترجل
فالغربة
بنعطية
game
قبيل
##ماني
##خرين
غيره
##مشيوش
##ازن
تيبكي
ميسيو
ودن
اليومية
مادموزيل
سخط
سمحوليا
رافع
اوكاي
كتفركل
التحكيم
لوليداتك
abde
ذهبية
غايرجع
فاصمة
##حبس
##گرة
##ندمي
والمن
شيواحد
ميات
بساط
يتقاد
بانلك
بانزعاج
حالهم
كيخربق
##اطرون
يزيدك
المفاجاة
اوربا
تخيلو
الصويرة
جهت
حديد
ران
رني
فطي
##مقها
##زاح
##28
##یل
معى
كيخليها
##روقو
العاءلة
السليب
مسمومة
كاتزيد
تفكرو
النصارى
وسول
يتصدم
غاذي
نصدق
تشوفهم
غايبقا
شدينا
السيسي
قرن
الجودة
يكول
خواو
ملكنا
الكوميسير
ينتاقم
مفيكس
التحرش
ce
ﻛﺘ
##اشط
كتكره
##كلش
القلم
علاقتي
محاملش
كايبقى
وعقد
وصور
برلم
غانموت
خايفا
دايمن
حبهم
جيتيني
ماخلي
عطيوني
معمرين
##رويض
سيكسي
ودايما
hd
star
تسيفط
قفر
##طاو
##صلت
##غها
##الينا
##ليد
هادوا
الحقي
العنة
بغاتش
وتنفس
نتبعك
داروا
يعز
يعاير
كايخرج
كاتبقى
بصد
تفعيل
يحدث
موهيم
تخيلي
مصاحب
استد
الفيفا
باغيه
زعر
الموعد
##نبول
نخت
##جوغ
الاكثر
الجنسي
لرجليها
مظلوم
ماقاداش
لذيذة
تخربيقة
tw
خبيت
رصاص
لوقع
هف
ﺩﻳ
الحدث
لبز
لباقي
مسلسلات
وعود
فراشة
##شوهو
المساع
فلما
عشاء
ارزقك
ستري
نتعطل
بتسم
يحبون
فیها
لودنيها
النهايي
وبوح
عابد
وغسلات
رط
وضر
##امتو
##اميم
بالسم
فالصف
##وقي
لبرو
لبزاف
##بره
تنبح
وخارج
كيتلمس
يجزيك
يغرق
مضمون
مدرتي
لبعضكم
وغيثة
يابنتي
الشهرية
وجودها
مدينتي
مصدقش
ماجاوبهاش
dah
باصرار
سماع
لريسطو
😂و
##شيا
بالشي
فالماء
هواه
ايخ
##رحت
الده
وعنق
##ويورك
برات
ماكلتها
كيتجمعو
##صدت
فلبي
بارزة
العباد
الكتف
الاختلاف
كتمايل
وعاودت
افراد
استفدت
الصغيورة
سيمانا
وبالتوفيق
عراض
فشو
##78
##ﺰﺍ
كتمس
ومهدي
تعاني
##عيشي
براف
بشفايفو
مواقف
##فوع
السياحة
تاكدي
كيسولو
##قطعة
قاتلة
شديتي
عويشه
غابرة
يمر
##حبك
المباد
كتوجع
لبط
الجدية
وناديا
نعوم
يحماق
طلعوا
عايلات
لفاليز
##عتارف
الابواب
شهية
جداها
قتلتي
حفرة
احتراماتي
دمعتها
##هاهاهاهاهاهاهاها
مهتمة
الديربي
فوحدة
##حيت
##مز
##باو
انشا
##لامات
مزيدا
نقت
يفطر
غاتشوف
اخيب
##وتيب
ترابي
فنها
ستاتي
الشرقي
الظاهر
كندوز
والدنيا
رمادي
كنقولها
يصبركم
خناف
ضرك
قيل
كفس
وطيح
يهرس
##رفات
بنيتك
شفر
شفاهو
تسعود
نقراو
عاملة
دوزتها
وانه
التحقيق
عروس
فلافاك
تعجبكم
تيديرو
شجاعة
متقلقيش
حذر
شاشة
##واك
##طحي
##کون
العظم
##زيما
راهوم
احرم
ويالاه
القد
تيز
وسطو
بقيتو
##بتكم
نصيف
وصلوني
كاسها
داخت
البيتزا
والسلامة
الطياب
تعجبيني
180
الفضايح
فنيفها
ذوقك
sport
رقي
فعد
##ﺤﺎ
##السين
فيكي
##وندا
معجبوش
كيموتو
فالقر
ماض
بناتهم
##قوبي
استي
كانتس
كاتحل
انتهت
اعضاء
لهذه
مايل
نورهان
غتقول
نجربو
غايولي
##عملي
نيبا
وماغ
نطلبو
تايجي
ياخويا
كلاك
الوحوش
وابن
كاملو
يسمعها
صدرك
السخونية
الكارثة
راصها
الاربعاء
خاجة
دنوب
درجات
وترد
متقدريش
احتي
ويطلع
الشهور
مسمى
وعلاه
وصلي
وصباط
كاتقاد
تنظيم
تيطلع
##تسمع
بدك
اتبقا
مواد
ماكيناش
يدورو
##فظك
سالمة
نيتكم
لباسها
كيخبط
##برياء
ونتينا
حادث
وقربها
خدينا
صدمني
فطريقي
كاتبغيه
يوتوبرز
تشرفت
الموضفين
بمدينة
طليلة
ظن
نلقاها
##عتو
##صرو
معش
كتطلب
انستا
لبا
الجاكيط
محبين
##ازينو
تنين
حساس
##وحد
سيكون
يحمل
مقادين
يتدخل
توافق
فقمة
لفاس
جابوها
##حلقة
نفكرو
فمج
بفمها
فالحب
قادها
سولتو
ركبتها
متشوقة
يسمعنا
مدخلش
وخلاهم
توريني
الفاضل
البوطاجي
world
bon
ظاهر
عضي
وطر
##صنع
##ارش
##ابور
الهوية
والدراري
بالعب
متالية
تحني
##كلات
الخواتم
تفيد
وكلا
لوهلة
نفساني
فرحتك
فوتو
##قتنا
خلقو
مستور
يصور
فهدشي
نعرفها
كثرو
بالكحل
##اغرام
الكوبل
فيروس
ناشف
السخفة
استغربت
خبيثة
خريبكة
moroc
تغيب
صم
طريف
قهيوة
كويس
ﻫﻮ
##ﻴﻚ
الفعة
متنا
الدرج
التذ
لعسل
اهله
يحصل
اعين
نسد
يسندها
بلدك
نصايب
ادع
ماعندهمش
ويحفض
تيقني
عاطينها
ضعفها
دابز
صغيورين
تفكيرك
##ack
انحاء
لغرفتو
تامن
جدار
غبري
هيد
يبات
يمك
##ايقي
معاو
حتار
الفايد
بغصة
ويقو
عمتها
سمعاتها
جوهر
فشلات
سباق
##فهمي
الرباح
ملكية
الكتابة
فجيه
ورجعي
الخيمة
صايبات
مشافتش
وموراها
افران
تهي
زاز
عواج
كضرني
ﻫﺎﺩ
##ومو
##كسيون
الاها
##ورز
انعل
مشان
تحولات
الخونة
الترجمة
مسرحة
لكاع
مقهور
##بطات
تزادو
غاترجع
##فته
سكين
بايبي
##صويرة
فضهرو
الشرط
كليان
الفوضى
نسمعك
فاليوتوب
الحزام
درويش
جرحة
يبدلو
##لكن
##ﺪﺭ
##ناطي
##شيشة
القبيلة
مساحه
الكليان
كاتك
النبرة
مغدي
بدلتي
يتزاد
يسكن
فقدان
لخبز
تزرب
##باتك
مفات
##عجبكم
بعضكم
حبيبه
بوع
##هزلة
نظرها
خيانة
الاصلية
البعيد
سحور
ماركا
ماجاوباتوش
فالفيردي
cou
mal
سلب
طوني
طنوبيل
فيني
فبو
لتركيا
ماخل
کر
##كذا
##اتس
البلية
البادية
##سيكية
وقاص
الفلاح
بنجاح
مزيانش
نعرض
بعدين
الزغ
قلبية
علمو
##اميو
زيفها
##عجبها
طالما
فايزة
توحشاتو
بالعرق
تزوجها
شبعان
الملحة
بورش
##imi
يرتاحو
ثاي
سينا
شبان
غدار
كرب
😁😂
##بهو
##رياء
العلوم
ولمس
##زيام
##ميوها
مشكيلة
لمحت
وسهيلة
مليية
رجعني
##اتيك
بتاني
غنطلع
##قرص
##oud
كينقز
الشخصي
يتحق
تاهل
دولي
روش
فون
قاضي
كروب
##نكر
##همكش
كتنوض
والاهم
##اقبو
هواي
السود
ومزير
لمرحلة
بحالاش
ابنا
كايكونو
##منالك
وراتها
وختك
وهب
نشكرك
اقصد
كتعاير
بالعالم
فتحاتو
##بغيت
رسوم
القواد
فهاديك
شهداء
col
فلعشية
معجزة
فالمستشفى
تبوريشة
داوه
سطات
صحراء
مطرطق
هيت
ودوا
يبتاسم
ومل
اشف
وحك
القلق
القاعدة
وعو
تيفكر
وشعل
انتباه
مابق
وكتب
وكتغوت
الاعين
سالت
طلبها
##فهموش
كتفرك
التحليل
عاونو
احساسها
كيطمة
وضعية
كاضرب
الستة
كوكا
##🇮🇶🇮🇶
pc
اكونو
دح
نربحو
##قني
##❤🌹
كيهبطو
والاد
##اعقة
ايجابي
وتمت
لبلايص
##كتاشف
وبما
الشهداء
لعكس
كايعجبني
كاتجمع
مقداتش
نسكن
وختها
وكلو
استث
لخرة
اجوبة
بكاتني
المشت
لغالية
دالش
ستين
كيعطيها
فارغة
الشرع
كيتسناك
تركز
الكتر
مكرهناش
##يونال
تجبدو
مبدلة
تود
تامل
تاخر
فاغ
قضاء
كوي
ليكت
##نوضي
اسطوري
كايتش
حسنية
تشعر
لابيل
وغدي
ينجيك
لسقات
شفايفه
سوالي
الاوضاع
ضرورية
منتصر
لوجعها
عتقو
صبحت
وعنداك
سكرتيرة
سيندي
خاسرين
pa
خام
داق
شلاهبية
صعوبة
طاغية
يكس
##تنان
انخرج
العفوية
فاليد
هيهات
##سيق
وقات
وترك
وتكوني
متز
الشمع
ونسات
مزوقة
تسناه
الزحام
##فوتو
##حته
جايزة
##طفا
وصلاتو
##نهن
عوان
الناجي
كيسد
وتحنا
يعتبر
الخلف
عرسي
ماحساتش
تهرسات
النسخة
بالتفصيل
can
ازي
حلة
فسو
فتركيا
یا
##قان
##کر
معيش
##هودات
متفاهم
نتلاق
القبل
الصميم
##تسنى
سمرا
وخايف
لدموعها
##مسحو
##بالو
فدنيا
مهني
وخرجها
ينقز
ناعسا
خاطب
العيلات
مضارب
متعلق
الظاهرة
خلصات
باطمة
الضرايب
فيديوا
راشقة
المسيح
عبدالرحمان
ارقام
سكارليت
قنا
##اى
##گد
##قفو
##ايلا
اسكت
تيعرف
حسبان
##مالات
لدعم
ماعليك
مخسر
مابي
مدن
المسج
دايراه
براسهم
##صدع
الخيرية
دالناس
دخلوه
سواريز
تايدير
كتسلم
ساهير
مفهمات
اوليفر
بتركيز
وراجلي
جوليانا
التقرير
قوانين
عاءل
##وانا
##حشومة
##yat
##هاينة
##ارحة
##ريجة
##نيقة
##بوعين
كايحرك
مرمية
سيس
وسايل
وشم
موديل
اكشوان
تصاح
##ثرات
عرفك
بتق
وكيقول
مانعاودش
فحياة
وايديه
سيدك
##سولها
##ind
فارغ
الافريقي
كدبتي
ضيفة
وابتس
##ثلج
وتيليفون
بكترت
روتيني
مطرطقة
دزنا
المنشور
pour
زلافة
##ire
##ﺸﻮ
##ريكس
الموه
##روشي
فالحي
وعات
لكوم
نوبتك
الرصاصة
وخلاو
##بداية
يسين
كبات
تشوفيني
الموغريب
بطلة
الوردة
ماعرفاش
سرقة
ضحايا
فالحمر
يفرحو
بالفن
برجولة
الظل
العدس
الانتباه
الكنبة
وغمزها
العسكري
fatima
ديزولي
##طعي
##ثها
كنعاود
امنيتي
##اطية
التمن
وعادي
وعدم
##حيها
تسرق
غانح
يفقد
##صرط
فحاجة
لصاحب
حرش
تيقتي
كيتعامل
انديرو
تعاونيني
بوجع
خذها
قاست
ومغاديش
رفضت
وبدلات
مبروكة
تسيف
زار
صيد
ضدو
ظاهرة
مطور
واتي
##يو
كتوقف
البام
بغزارة
مشرفين
كاتفرج
عملك
الغناء
الراقية
مانديرو
المشر
##اروخ
عاودتي
الاجابة
تنازل
بيرو
يكمي
##كع
##جعي
##جاجي
##to
##😘😍
##ايلات
الحباب
فالرو
ولقاو
ومالو
احتار
الدون
الخياطة
ونب
لعمل
نعقل
تقدير
تقاوم
بقرة
ماكد
سويت
همست
تدافع
المقالب
طولت
بالدنيا
الصفحات
##فاعل
الكومنت
مقلتيش
كاترمش
بقبضة
الشوارع
ياف
منتوجات
ديسير
الفنون
وبدل
لعلم
الطلاب
مزالا
لانسان
الموخرة
فلبيض
فطورك
نطير
المحطة
##مناه
حسابها
نظرا
المتبعين
الكومي
بريي
تركية
لجيه
وحداه
اهانة
مركزين
youtube
رامي
##الكم
##اسرة
فالري
##كيها
ايك
وعر
كاتدير
##وسان
رجعوا
خلط
وخرجنا
فلغ
مهموم
يصح
##كرهش
مغيب
واصلي
مديرة
##ذهبي
ميلادي
كايتسمع
bien
طموح
تينا
حقاش
داليل
طوف
🇮🇶
##👍🏼
##ﺎﻳ
معاملة
كيبر
كترتاح
والهم
والكن
بالرب
بالامر
##دوهم
متحر
لمحال
مسجد
لحمر
مغدة
مقطعة
الغربية
وخدام
مكنقدرش
نصب
صغرها
غايع
كانواعدك
تغبر
جبنا
##صوريش
التعادل
راحتهم
ماخدام
شكاي
ومتنس
كتفتح
التقدم
فودني
##رفيقة
بالقناة
التشجيع
سابقاه
ودايرين
الخصم
خطيبتو
رموشها
far
صفي
لنق
ماريو
يوقفها
##ماسي
##98
والموت
بالحلال
##سيلة
كايك
ميحس
بسنانو
فعينها
تشتركي
##مسك
مايعرف
الاناقة
فايقين
دوشو
تاوه
انورسين
فالجنة
نعيطو
ربحنا
علیه
وتمشات
وتبعاتها
وتهلاي
بربعة
والاحترام
الجمعيات
البخاري
جنين
طاليس
القاتل
##احو
الحوب
فالبار
ايو
الفلاش
مسار
كايدخل
بلاكار
مبهو
يحبك
اتم
لوالي
الشيب
##سمعيش
دودة
وكلنا
الاعضاء
المنبر
قدرنا
خلقه
ونعست
لمحها
التركي
تبعوها
الاشهارات
يجريو
##عوضك
اليوتيب
mus
تلب
زربة
لزي
ملة
نقو
وادا
##كلاط
##الاف
فالطيارة
كنزيد
تبرع
احياة
احلامي
ويفتح
وبصح
##طورية
مغامرة
الغدر
يتجمعو
ماعمرها
تجعل
لخوف
تهضرو
حيداتو
##خاصم
عطيتي
يتزوجو
مسيحي
كايجريو
كرهات
تدريجيا
رازان
que
شناهيا
طهور
##وبو
##مجة
##خرات
##لاما
##ريتش
كاني
العقرب
شيخات
##ستنا
##لعات
واشترك
مرز
براني
برضى
وكتو
مامساليش
استح
يفيد
غاتموت
توحشتي
تايشوف
ماحاس
نخرجك
عاقدهم
ماوصل
ماوقف
لكرش
غبرت
مسيطر
الخارجية
شاهدت
اصابعها
##🤲🏻🤲🏻
سمن
لاجل
##ke
معلمة
فالصيف
وتنت
وتلف
التقة
وعينو
لكانو
تخنق
تشل
عارفه
خليتيه
عصباتو
يحفظلك
حاجبه
مبغات
##are
تخلصي
كتفرح
اختصاص
بريء
لونهم
قاتلك
وركبو
التفاعل
طبيعتك
رشاشة
فاوروبا
لمصعد
كيدويو
الحادث
مفقوصة
سوتيان
بطفولية
شومبر
صليت
ضبري
ضورت
فروس
كفها
مسيفط
##البي
منديرو
فيديهم
فالاي
اخوت
ابحث
محكمة
يعرض
الكابة
وعهد
زوامل
مكناش
تفش
النصف
بروف
##بقية
اتفرج
مصاحبة
بحزم
استمري
الاسبانية
غتبدا
المسدس
ماداز
اراديا
يصلاح
سكتنا
حقه
تابعينها
قريتها
##حملو
لفرقة
كتنكر
مفرشة
mb
قوى
كاسي
يولد
##جام
المتش
والاك
الحان
التدخل
التنفس
بلاغ
##تسوق
نوصف
تسولي
عطر
غنعيط
تجيه
نهزو
لشنو
فسقف
فساعتو
##تسناو
يطبق
علمك
بيدك
صورتك
والسب
بوكلي
كتحمقني
شوقي
الكوافورة
فالماضي
تعانقو
بطرشة
اضرب
رطبة
كوا
لريح
##شكل
##ڤا
معوجة
والعب
احض
احبيب
والهتا
##فرع
الزمالك
خلصو
الشيشة
##وناش
##اويها
كتحق
معرفتيش
تعرفها
خطفات
المحرو
الاوقات
وهادو
حشاك
ويحق
لناموسية
وعندهم
لراجل
بالبكاء
لقران
الحادثة
والتقدير
وتفرحي
محجرين
البرتغال
don
حرج
حبوب
كشف
##ماشي
##زلان
##گولو
##ty
الحيا
وقاع
##داتهم
##انيس
ويهضر
كاتد
مباقيش
مرايا
تيقة
لكلي
بسمت
اتمني
يسخن
تشوك
توري
عايلي
مستق
تجيها
جايبني
يخليو
نفذ
وطريقة
دايم
فسرو
وصلاتها
فداركم
ويتا
الكوخ
مداتها
جهدك
وصديق
كنسمعو
زهيرة
لودنها
##خشخ
وجاوبات
بخاطرك
khadi
جعر
كعب
وهر
وديرو
##زلت
##36
##خسرو
##ديع
كنخرج
الفايدة
ومدو
متاخر
لبوليسي
واخت
واشمن
الشقف
لعصير
وصي
ودخلي
تصيفط
تشفي
نقصو
مريحة
قاديت
نكبر
فرجلها
مهندس
حفيانة
ماتعط
ازينب
جزيل
##صعة
##95
اخوات
ايوة
الفلاحة
السلك
متديش
الجبار
التز
مكروه
الامومة
فخطر
حلوى
##خباريش
##mane
ويشافيك
اقود
بالبكى
يعاونو
ارتاحت
البرودة
47
لسم
##طفي
##خدام
##فسي
ديا
كتاش
كنخدم
##ase
وعت
تقسم
##عوات
لحياتي
بغيتهم
الزربية
تخشي
##ضوها
##سانسور
نديروها
##ليهش
يجيني
##انواخا
سبورت
تاتشوف
كيسوق
جزيرة
ويدوز
بادلاتو
بينوارها
مذاق
مبغيتوش
امريكي
الوسادة
شارج
وادم
ويتك
##ويرة
##بنة
##فنو
##فاجر
##يناك
ليمون
العقول
ولص
##هودة
وتكم
بزواج
القدس
الدماء
وباقا
الكامل
ميكا
##فرت
شعلاتو
لهجة
مخف
وليوم
بخط
##اويه
ومعامن
قصحتيني
المقال
لبساتهم
شريكة
محسش
##ake
ونسيت
تسنايني
كيلمع
اینتر
مجهوداتك
الابتدايي
1k
اضو
خالة
ساهم
عديدة
قند
قنبلة
وارح
يرف
##شوية
##اربا
معظم
كيان
المذي
اوقف
##برين
زوي
انتظ
فوقهم
تغيرات
##غوتش
باهتة
لموسيقى
اختلاف
عاشو
الماسك
الاراضي
احلامك
##عابير
ثور
خضرا
مرج
يظهر
##صيد
##افاط
##ريتها
المتس
المشة
كتافات
اخى
امسخ
احمل
مسطية
الكلية
سياسية
نواحي
##رتهم
استخدم
عله
اجنبية
خلفة
فطورها
المحنة
تاتجي
الناصيري
هايدا
كيصبح
الاداب
##ديماري
life
تنفسي
لبعضهم
وحسيت
سبرديل
فلتات
بی
رصاي
##جود
##ضاو
##ﺎﻧ
##ﻨﻲ
##امنة
الملوك
كتبغيك
فالنعاس
##موتش
اود
تحضير
##هيوني
ويف
ليكات
كاتنفس
تنبغيك
حسرة
الطعام
برزو
حطيتو
بتهمة
غنعرف
بابات
وغالي
##قوليا
الثروة
سيفتو
البياص
فالعام
النواحي
بزوجهم
دخت
الكيلو
رغدة
احساسي
لحريرة
32
سبح
ميا
ﻏﻴﺮ
##جس
##ظا
##الاو
الماز
مشطون
ومين
الخصر
##لامط
ونضال
وعصام
كاتاكل
بسمية
وردت
فعقلو
##يلتو
دايراها
نشطح
##اتكوم
ترمي
ماقلتش
كتقطر
كايتمتم
غمزات
abone
ofici
الجراد
خاوتي
تروح
ل10
##جوهرة
##وفري
العليا
الفصل
ويبارك
##اطب
لحقيقة
##نتج
الزبدة
قدامه
هداي
ياكو
يشرف
الانث
خصي
الرجوع
تستح
##عتيني
كتعصر
التوب
كارمن
المخابرات
بانتلها
##حملهاش
وليداتنا
مونتاج
والدليل
شرفي
كيجمعو
يزور
مخاصمين
##ظيمة
نصراني
قنانفها
كيفرنس
رضع
رملة
سود
مدم
##وام
##یں
##ادنا
كتخص
بغاتها
السكان
وياسين
##غيبات
خرجني
لحديد
كنترجاك
الغالب
##سنال
مامشي
##نزف
عينينا
##سرى
لاسفل
لطنجة
تطير
يحفضها
اعترف
الالف
توجدي
اموال
كاطل
وخاصك
والمشكل
حبابي
05
ترقص
زاجة
طق
نرض
نركب
##طتها
##اجرات
انين
والشر
والمق
البغرير
كنفهم
ايكو
وحاس
رجوى
كايعطي
لكدوب
راكبة
لفرح
لخطر
جوجل
بمث
شرعية
الضريبة
نخبي
مهاجم
سولتها
جعلت
قصدك
##ميوعة
ولقاها
البطيء
الارجنتين
اى
ايتها
##عاج
##صدي
##mb
والمت
##اوديش
تقصد
وخوف
تخنز
عفاف
##وصلها
الدينية
##لاشى
ويعض
ولوخرا
تقوليلي
دعمي
نكذب
احلامها
ورجل
نظراته
كتدعي
الذهبية
رودينة
حان
ياز
##علاش
##au
##ﻠﻮ
ليدين
##ادتو
كيوجد
والتس
العمارية
فالسرعة
ومتق
تحرش
استوعب
الوسيم
كايحك
خاصه
شعندك
نقدم
افكر
لفاك
نصد
مفرح
فكاهة
اقتراح
##راقب
طلقنا
بايتة
معاناة
##دهن
موجدين
الاستخارة
هربانة
تصاورها
قدمت
ناكلك
فالفايسبوك
زا
ضايع
ف20
##تز
##مب
##كسي
##جرين
##فزها
##قنا
##ابهو
والنشاط
البوسط
كنبقى
وقلتي
متلك
مقبل
بخطى
صغرو
يهتم
تانيب
يكذب
الحرشة
الكريشة
لقياس
دزتي
مرسوم
بالسرطان
بادية
حني
رافة
##كوتة
##اندة
الحرة
الحادة
العر
فالشو
اليلى
##قوط
لعود
ماتم
ماتمشي
##حسب
المساء
##ذيها
نجيك
مابغيناش
كيحطو
الضعيف
وهانا
فريد
كتقولها
كتنشف
وعيها
مربوط
بونجوغ
اديرة
وهمسات
فطوش
سيادنا
مقطوعة
لعواشر
ريناد
اینترنت
ave
lam
ذبح
فمد
كعاد
##ثية
##اتمة
الحنينة
القهاوي
الجارة
الخوا
غيقول
لحيته
سيتي
مالقيتي
اعدام
يتقطع
فعنقي
تمتيل
نديروا
السياسين
رووس
تاعنا
وهاذ
حبنا
بناتنا
تلصق
اكتشف
##tif
فالقنت
رايعه
جاوباتها
بالخدمة
خلعني
وعيطات
ناحيتو
##جاوبيش
التفاهات
قافز
##كدبش
الكوسان
مهرسة
khadija
##ودها
##جيت
##جمة
##هذا
##قاف
ديانا
المصير
غيرهم
وجابو
ونسا
الكلاوي
وعش
تيحك
هزوه
لحن
دخلاتو
لقديم
مزنگ
اصلو
بقالي
بقسوة
وليك
خليتيها
منهارة
كولنا
نديروه
تكح
وهاهو
فضلات
ماليه
وهزاتو
تاوصل
##ماغو
يتعلق
##رايم
كيتحس
الحساد
معجبكش
تعطلو
لعيون
والحمدله
بالامانواخا
كوكو
##براطور
ذقنو
فالبيسي
مثواه
واسم
##بهي
##خى
##ضورو
كانس
بالدين
كلمه
راسمة
ونضت
##هدف
مكند
لكول
اهضر
الغراض
مستقرة
كتحمل
اغرب
قراعي
ادب
ابتداء
اكتفى
مضاع
صبرات
كتعرفها
كنبغيو
دينمو
خبارو
تيقتك
ومراد
مكتعرفيش
مبانتش
فدماغها
نبوسك
محبوسة
سلت
طابع
عزة
لحك
يث
##طانة
بالوجه
##اقص
كلينا
##جيلات
وتاك
ومض
متالق
##طيهم
التاق
تيصوني
##دمت
كنتم
الغطاء
ورس
بقية
بجرا
نصبرو
لهادي
وكتس
عصري
تردها
تدريب
لولين
المصطفى
الحماية
تاجه
تبدلت
شاعلين
وفتحات
هزيتي
تحيدي
هنييا
bar
مهي
ماسي
##لني
الهاد
##هاء
المين
فالانت
##قاتلة
وعدي
وعافيك
اهدي
وسند
وقفنا
بدقة
ماكرة
##سنس
لخطبة
بابه
##حتكم
لجمهور
تقولك
وانس
تلفزة
##صويت
لبستها
الناظور
الخلفية
افرحكم
وزوجك
كيداعب
افي
بطوموبيل
تونسي
شارت
ﺷﻲ
العنان
##غيث
الرجالة
نشجع
كينش
كينوض
##اهلش
##محمد
بالحياة
الافريقية
موسة
مافهمات
عوينات
المهنة
الكوكب
النكافة
الضحايا
وضري
يلبسو
##حون
##رال
##ﻣﺎ
الg
##هامة
##اكط
كتلوح
انكون
##اقدين
وقدر
اياسر
السند
تعوي
القفة
##لمسو
##اطعين
الجس
##ديرة
عليهاوص
ماتخلي
مزاو
يحميها
مقدمة
تواجه
نشوفكم
نيف
قصف
الذكاء
##بدلش
الاشتراكات
لمحكمة
كيستنشق
مفرق
مفياش
صباطها
الاذان
che
بميوعة
عدا
♥♥
##غلها
##ثلو
##ارضة
##ابلات
##اجور
فالمد
اومات
الفريز
وتمو
وتعرفي
ولاية
اشتركي
متجه
وحاجة
الصعبة
الشمل
ريحي
ورتاج
وخنزر
تخف
تخبات
وهذه
كونان
يالح
كيتصرف
##بالها
تستسلم
لاحتها
بمح
بالعافية
كلاها
المغربيه
الالقاب
تدار
دادة
ضهرك
نواغ
يربحو
##بزة
##zy
##🏃♀
##ابرة
معم
والدر
##لوبين
اليز
##ميسة
ولاحها
الكاين
الكاري
تقدمو
##ونيو
الطول
بردو
فردوس
الزاكي
الزريعة
تشا
مكنعرفوش
##ريماس
##بيتهم
المشماش
وكتلعب
##كوبي
صفات
صفحات
قدرة
صبرك
وهاكا
التعذيب
جسدو
رافضة
فالتع
القوى
علیها
كايتسناو
الملاحظة
المعمول
ثلث
حوت
خاش
ضخم
لارج
يري
كتغير
فالهواء
مشرب
لبير
##قوى
الشهادة
سيجارة
لقلبي
مزروبة
عيوني
حياك
تشكيلة
##يلتها
يديني
مانقدش
تغرق
الموافقة
تالح
مكيع
هاذوك
وايضا
مادا
الذات
عاشق
تفهمني
غسلو
كيطلعها
ناقصين
عطيهم
الهادية
عطاوني
##نصلية
منظمة
##حتارمو
##ung
الميساجات
بطريقتي
هبلتي
مربوطة
simo
ارف
حايرة
طلو
قزي
قطة
الادو
##لاقات
معاون
كتعيش
كتقتل
والارض
##رفيه
اخضر
امدرا
##طيعة
كاتهز
ميعرف
النز
النكتة
نوريها
بشرية
بخال
مفهومة
تغيرو
تغريدات
لامام
كيعبر
مطلب
برجلها
المياه
لعبنا
الاتجاه
ورجليه
العلمية
خلصت
معطلين
متسوقش
كلماتها
الرضاعة
معقودين
بعجرفة
fo
ori
sara
زهو
صوف
ويني
ليوسف
##ابلها
##ريقو
المقد
##ومال
مسام
تسكتي
مدافع
المستو
زينها
يحفظو
درتلك
سبقاتو
كتقفقف
فالسطح
لولدها
اختفت
شريط
ضوري
الكاميرة
الرسايل
اتوقع
معلوماتك
شوكولا
حابة
خسك
شاح
غريز
فليلة
ناو
وجيب
يقوليك
الارت
##افلو
الهلال
متمر
نتغ
الخمس
وبك
كانتسنا
تساف
مايقدر
##نسين
غايسكت
المسافة
تكعد
وانها
فتاح
بالكاد
الاقدار
حطوه
لوحد
تلاقيتو
تنفست
غنولي
مشاركين
##ليكوموند
عليهاوصديقة
شاغ
شداها
لجر
نانسي
##طرين
##ﺮﻭ
معلية
كترج
##ماقها
كلمت
بعا
وقرات
وتضرب
محني
##لتيني
فردا
اصر
نسافرو
وفات
حملها
نحلو
نحلف
روما
تايكون
الضخمة
حراس
هايج
عزوز
برجل
دفعة
العبارة
بالنهار
امولاي
حكيمي
كاتشهق
مشفتش
ودوات
وتوجهو
ضورها
معدودة
كيلبسو
الهجرة
كتافي
انعس
بالرحمة
العفريتة
فالازرق
ولسان
الفاسي
نتحكم
##لمهم
##عيمة
مستوعب
زواجي
مبادرة
ماتر
تاغ
بلدنا
كتشوفها
بانليك
دايرو
عصبني
##علالي
شفتكم
تخلينا
تاتبكي
نظرية
فالعايلة
دعمو
المهني
كيتعصب
كرهتي
البشير
الركابي
##رويشة
كنقصد
الطاكسيات
عافيةليتني
مارضاتش
نونوس
حبل
شاكة
##عاء
##لفة
##ثرو
##ايبين
الهبال
الحجامة
ولغ
ومز
##بوز
رجعة
اسط
تيسر
الغذاء
وفواد
مايس
لفض
##فعك
##صروف
سيفطو
قصتك
##قيقه
الميكا
نرجعها
رسمات
عرسها
المكانة
ايتان
سلبية
يجبدو
زربانة
صباطو
التدريب
فلمراية
متابعيك
her
يور
ينسا
يرفض
##شور
##یو
فيوتوب
كتامل
الحاصول
اختو
##سته
الفحص
وتات
السنان
تعقل
نتجمعو
نتلاقا
القافلة
محاوط
تنسمع
تقادا
اعشق
وراجل
الزل
وهربات
عقبة
##طراس
واحمد
كيديرها
بالحليب
تمنع
اذاعة
مفراس
##صيفطو
صيفت
غنوريك
ساندي
مديحة
فغيبوبة
تفارقو
ac
فماتش
##صاوي
##خوي
##ديب
كتالم
وملك
متعب
تعدى
الجريدة
اسابيع
الكوب
كانتفرج
خرجاتها
تفركع
لقلاوي
وساهية
عمليات
ورينا
اولهم
لفقيه
غنهضر
مدمن
بخيبة
جاوني
الريزو
يديروها
كينعس
ارش
لقاوهم
دقنو
بديتو
شرفت
##جاوبوش
كنشكرك
توجهت
لالاك
المباريات
جوابك
خطيبي
غوغل
فالاوطيل
لذيذ
بطعم
نارية
##زاتو
##خربق
##ليج
##ابلين
معامل
كتنش
بالتق
احلي
ويجمع
ويبدا
##برون
محبي
الكفتة
وعزيزة
وصاحب
كاتعاود
##تشاف
##نتيني
وقفاتها
تشق
اجراء
كتحماق
##عجبوني
طالبين
ناعم
##اسيح
قصدات
شرقي
كتسكت
بايد
تابعاني
كدعي
فالكوفر
مكلفة
دفتر
النعسة
كتعرفيه
مخليني
اعتراض
عالاقل
دعواتكم
كنشرب
الباسل
فبنتها
بتخنزيرة
تدر
ثلات
جولة
يلع
##ila
الديو
انشوفو
راسهوم
##سيب
ومزيان
اشاعة
اشريف
متحل
بنزيما
نتاقم
الشوا
الوهم
##دمك
ماتدير
توضح
فحقك
تخرجها
وناش
كتسد
بانتليه
بيده
بالغلط
بوكو
العشرين
ندمك
سكرانة
لديلمك
خاطرهم
دافعة
غبرة
يبعدو
##جهة
##هيد
منغ
##لاشي
كانقلب
لبغات
ويمص
##تكوم
عنقت
تيم
نعاونو
دراس
تصبري
##شوها
ناسيونال
توحشها
ازياء
الاولين
رافانا
والمغاربة
بالصلاة
وسلمى
فورمتها
ترجمة
عنقه
بحياتي
بكلامها
الحنانة
مارجع
تفاصيلها
تمل
لروسيا
ملايكة
##35
##فاتها
الروج
الارجاء
كيحت
##اهده
والمد
والضحك
كنضرب
وتعيش
##لعبي
تبن
واخدين
الشاي
لعم
لعساس
كايل
لحجر
بردت
ودابة
انتصار
##وزن
##فرين
يشبه
الانستا
##فعش
لاما
##غرتو
مبغا
بانتلي
comp
وعقلي
تقليد
وزوجا
الفلسطين
امازيغية
انثوي
الشينوا
دكي
لسن
##ادث
والري
العنا
العوم
متديهاش
تبو
نتابه
الجري
محبوبة
محاوطها
النمو
اعلي
##مهاش
لوين
##خصية
فقراي
خليوه
هزاتهم
##تيشرت
وكلمة
لتن
لتم
نخسرو
##حشك
والمخ
خطوبة
سهولة
اذان
متحمس
##low
فولار
ادراك
ملابسها
فعينيهم
مخدامش
per
فناس
مفيك
##هبل
##ليلي
انطلق
والدار
ويفرج
الدف
##اضرين
مرمي
خليتهم
عصبها
طيبتي
فحناكها
ماقديتش
الضد
يبدو
##سكوب
برجلي
العباية
خسرنا
اموركم
fou
تريح
خيا
ظهور
كطيب
كيكمل
##رجوا
والصح
اخص
لباها
القيم
الشقيقة
الوث
نعلق
نعلمو
ماتان
وشال
مالني
اكبيدة
ماعن
ولدكم
ضرباتني
##باتة
مستسلمة
هازو
فنظر
تلقي
دقنها
لوالدين
الصفقة
بضهرها
الضيم
فالفيسبوك
يمسخ
النسبة
وحاولت
زغب
طمان
هين
يند
##عدات
##هف
##ضاش
##48
بالاك
ولازم
كايلعبو
وصاح
تنح
مكالي
ماتحرك
##باهم
لكنتي
مليحة
تخم
عايشا
##ابعاد
دوما
خطفها
ماديا
قصتها
شراء
فالدرب
الاداء
كيكبر
ستيف
##طناعي
تحميهاو
البسيطة
ادوي
جداتي
دامعة
شات
قايلة
كج
لالم
##96
##38
معذ
##شيف
انايس
الفاليز
لمسو
حساسية
مالقاتش
غاطيح
غانعرف
بكولشي
لجمع
يهني
يخشي
فجنة
نزلنا
بالخنقة
لمنطقة
القوالب
نفهمو
اقتصاد
ماشفتش
ساخرة
مخلاهاش
بخاطرها
واثقة
حانوت
خشي
دوب
ساس
ظي
هندي
##تهد
##عطل
##صت
##فح
الهيبة
كتسرط
بالابيض
ولهيه
وتجمعو
السبوع
السانسور
وصر
وصبر
تفاجات
##متى
حلول
بكاس
فالماكلة
بوكم
اقصى
صحاباتي
تلميذ
يفرحني
شكلا
لكلبة
وتحنات
التحكم
يضربني
كتكبر
توقعات
حفيظة
توقعت
بلهلا
التشكيلة
بدوبياس
##عجلات
ep
lm
بمشي
زبلة
يندم
##اتف
منقدر
##ابونا
##ديح
كتخليه
انمي
والوقت
والبس
الحاضر
بالاد
تباتي
الجنود
ابل
وعبد
##وحي
##وكس
الطمع
بشغف
مامست
تشوش
تميت
##متاع
تجه
##فعها
ترون
الاعراض
بمق
جاوها
الكرامة
تهدنات
ضيوف
بريحة
عتبة
ملاحظ
الاعتبار
فالجيهة
تكي
كرا
كوحل
لنز
ﺑﺎﻟ
##كوك
##صبها
##ira
##گات
##قزو
فيفي
##اكز
المرو
هادك
##وقريبة
متعاودش
وجز
اصدق
الغوتة
الرضا
سمعوا
بحدها
تجرات
نورتي
صفار
ستكون
طلبة
وهاهي
تدكر
##فيقش
بالتخ
توصلني
الربحة
محتاجاك
وهزيت
##قراطية
لمغريب
##♥♥♥
بلباقة
حفيدي
جرحها
رزقو
تقلقات
التغريدات
بزعفة
اعصابي
mis
جحيم
كونا
مهدن
##ابين
المايدة
اليو
بناتك
وبحمد
لعشرة
محام
كايقرا
كاتحك
ميكي
لكور
بعدك
دراما
مقالت
مخطوبة
يشريو
حاجتو
##عرضو
فتلفون
فسبيل
الضخم
واكلين
##هضروش
فالتيران
الفواكه
مسرحية
كيتمشا
##ستاهلوش
جوايه
ba
دص
رافي
ظرف
فتر
نلبسو
وضو
يصي
🤦🏻♂
##طاتو
##تيان
##بيلا
كتوب
كتليك
الحبة
العبو
لاطفال
الفين
##هيل
الخدام
اسلمى
ونك
لعمارة
الواعرة
يعونك
تنسي
عمير
الغرام
يتابع
مخسرة
تخلا
الاسباني
غنجيب
بخش
حماية
كملها
فجوج
الوردي
الضحى
مضاربين
حاسب
متعطلش
يوصلني
ترجف
ورحمه
الازياء
اسطوره
تخذلهاوقريبة
##واختا
az
يبيعو
گولي
##ليمان
الحن
الحنونة
##اقبها
##جيها
وتاني
ويضرب
لمهيم
خرجاتو
سيارتها
وسر
خاصهوم
وخوك
وخديجة
الانتحار
##وسفاط
بخي
صدقو
فخباري
10مليون
يجرب
فايس
لاستقبال
السرقة
قاطعتها
وعدنان
طلقاتو
لافابو
حبيتي
الالماس
تجاوبها
اضفت
تعاونها
فالفيس
المظاهر
النضاضر
avec
had
خاينة
سبو
سبتة
شوش
طفر
نزيف
وضروري
يتوب
##شمي
##27
##ثلي
فيست
فيوم
الماضية
##ندر
بالتح
وماس
لباه
الخاتمة
تيو
نعمر
النحس
براجل
##مانه
مقس
الغوز
بلدان
وغزالة
دارتهم
لجهتها
##كملش
زيانيتي
لغات
دالماء
حبيبنا
فايديه
الاعداء
كتسالي
صحتي
رحمك
سبحانك
##ضيعش
##كروه
وسلمات
لمساعدة
وعيشة
الكيكة
التركيز
الفتن
زيتون
مالقاتوش
سقط
شوا
ضدها
قاعد
نكلس
##جرح
##اناش
ليق
كيبغ
اليها
لبينوار
الجروح
وبقاي
التكن
لعبد
لعشاء
اعم
لدروج
فعلت
فعايلك
تمخ
##ردش
مانبغيش
الاحتي
لساعة
واحترام
شوارع
كتبري
وبغيتك
جنازة
الموسخة
like
وجراتو
والمسلمات
فطبسيل
يسندهاواختا
01
pub
دبح
روقية
زاوية
ضدك
عاء
##اكات
##اكلك
##افضة
كيشي
كتفت
البلي
متا
تحصل
كاتبقا
تنك
النضر
##رهان
بايرة
وراتو
يسبو
مايو
تالغدا
اداء
المنتوجات
قتلوه
الموتى
وخلاتهم
الاطباق
يبغيو
تكرهو
بشوفة
فطموبيلتو
تهمة
رسل
طابو
نطلقو
##داش
##بيلو
المحال
بالاب
ايم
نتاصل
##اطنة
يتقال
وخنز
مودة
شوفتو
حنايا
عطاتك
خليجي
ركزات
##سران
##مكش
يديروا
مكيش
يجلسو
رووف
قطعاتو
القراءة
المجموع
مخرجين
الطوموبيلات
بثوثر
المفاجية
كنديرها
معجبهاش
وبلاما
مجبدين
عيونه
لماماك
الالكترونية
بضعف
حكمة
داهم
شى
عات
ﻋﺪ
##واتها
##امعين
##اخص
اخاف
وقريبة
متخلع
بزف
رجالة
يعيا
يعلق
##ويجة
نعسة
فرانك
ورميساء
وفخ
راجا
الانبياء
خصكم
تهنيتي
مفروض
##يسكي
مستاعدة
وكتسمع
##سمعوش
خطب
فتحة
جنسي
جنبك
الضواو
تخليهم
عيطتي
بمعرف
صدقني
يهمك
##نادق
fre
خاب
نجب
يوسع
😂دابا
##طريق
##ﺮﺓ
المهزلة
الهوات
العدم
الفول
وتدخل
الستيلو
القصير
كايص
##لتر
مكاينة
وسهلا
الزرو
بحرك
يفطرو
فوضع
ترزق
خالو
ماقالت
فكرشو
الفوقاني
نسيمة
الهاي
مسوولين
وباست
هءهءهءهءه
بالطريقة
قبطات
بخطواتو
تحنحنات
نتهناو
تصالحو
ماعقلتش
المشتركين
اطيح
اربح
ارفع
برف
جهو
ورفق
گول
##ite
##خبط
الهدية
##احك
##ربه
##توبر
كانضحك
مشوشة
الخفيفة
التاويل
لعقد
لعقوبة
وعزيز
غيبوبة
تيمسح
مكشوف
ماتست
ورع
##هرن
غانبقاو
وكيفكر
##شاور
مالكوم
يرحموا
لاشين
يردو
باينه
##فكرة
كده
يرجعها
الخطرة
نعاسو
شرحت
تعطيهم
##رويج
ماحسش
ومستحيل
حماقيت
ولجميع
اگ
شوم
لظ
##عبو
##صرين
##هقها
##ابيل
كنعيط
الفضل
علاقتو
التاهل
##اضو
تنحن
النقي
ياغ
الطنز
وسوف
عملتي
مصبو
الاسنان
الاند
مدلي
اقبل
تايقول
الذنب
كيشربو
واقعية
كايتفرج
المصحة
صدقيني
فلاخر
جهدهم
الاكتياب
ملفات
عذرا
مهزوزة
وماعارف
gh
جنت
جارية
اليت
كتكر
فيهاش
تعارف
ويقلب
لعفو
ماتك
نومة
يحزن
عارفهم
مايح
الاسعافات
كيتعاود
لصوت
##جعش
قريش
قدرش
كريدي
سامس
ضحكتك
شرفها
مختالف
شرحي
gogle
لبغيت
##كانيات
ضغطات
رتويت
سابع
طولو
عنيك
قاصر
##فتك
##وردو
العسر
كنجمع
السطل
متحركش
بنشر
نتسنى
خرجوه
لكرة
الزايدة
يسكتو
نقر
فرحي
##طرش
##مضغ
وزدح
##ليكش
نهزك
واحلى
جبدتي
بروحها
كتقرى
ماستر
كيسكت
الاجباري
فالكاس
دينمك
الكمية
التسعينات
مفيهش
تقاليد
الداخلة
عساك
سهران
مقيمة
حنك
ختم
طنز
پي
ﻓﺎﻟ
##عرض
##👍❤
ديتها
معالم
كنفرح
بغرور
السليم
السريع
عنصرية
وبص
وبالي
ليكانت
كيفكرو
كايجيو
##لقاوش
مزوق
الرعد
هدرو
تخال
سمعة
غايبقى
المشاهد
نشطو
جمعتي
وايهاب
لاخير
بالمثل
بالمغربية
المقلة
##ory
سميات
##🇲🇦🇲🇦🇲🇦
مشاءاله
العجوز
تيريزا
خصيصا
bl
gu
رنة
سكون
قاطعة
نرك
نادر
##ضمة
##فزو
##اميرات
كيعب
كيدرتي
والاغ
##يدار
الفشل
تحفة
رجا
ماشا
الخسارة
##قيمة
تيخرج
مكاف
ماتزيد
##اركا
اتاج
وختو
موتها
مامحتاج
باسمو
##نسور
نصور
المساعد
بكية
المشاريع
بطموبيل
دوران
زوجتك
لطبيبة
المقدمة
الافارقة
وتحنى
فلوسها
الادوية
منتصف
كيطبطب
##عشرين
فديوهات
لخدمتها
ضريتيني
الفاضلة
مسافرين
dm
بضربة
جتي
ريد
زاهية
سويسرا
طح
قوال
كسي
کانت
##زياء
##یق
##يتني
فالمنتخب
وترتاح
وحمد
نتهنا
التبوريشة
محط
يعينك
وصعيب
كاتعجبني
مبوق
تيكونو
النضرة
تسالم
وراي
وخي
تشافي
راكوم
##وبين
بابو
مشية
تاعهم
كيحماق
لتخ
زوجتي
المنتوج
فضايح
سولاتو
فبلاصتهم
التقاعد
وكايت
متشوق
دانيل
كنتمناو
ادراري
توفى
تخنقات
فنورسين
us
تلبسو
زعيم
قامي
لذا
❤😍
👌🏻
##صية
ليديها
##ونان
كتكمل
كتاكد
والديهم
##روشة
##كملها
العجاج
مشوه
##كتبها
تبحث
##قوهم
تعبت
القرية
القنيطرة
وعشرين
تيغ
الزربة
عيال
تمناي
استقبل
لخضر
لخروج
##طلعش
بكاني
مكانه
رباك
الضبابة
وهادوك
الصباحي
ابتلعت
وليداتو
والشعب
فلمغرب
المنافسة
##ida
نبغيه
تادخل
يمنع
سارحة
بمساعدة
هجمو
القتال
اليوماين
الشمايت
high
بلفرحة
ser
اقر
حجا
فاحد
کن
المري
##ربقو
الحجاج
اليسي
كنفضل
وقدات
الفنية
السودان
ويدي
الجدار
##عيفة
يحبها
##ودين
فاشلين
بجمود
غتزوج
بلاصا
##ولوجي
فمحمد
المحترم
تبعتها
فتق
وهاني
حرشة
##فهمك
تلص
واكت
##جواب
التقاليد
وذنو
##ابتن
كاميو
وضعها
شنافتها
لوقيتة
السيرفور
##رفصاء
محتواك
شعو
ضحي
عاين
بالنس
البت
وتخليه
##اصم
تبادلو
الشارفة
لقاني
مغنس
مكنضنش
تجربي
غانوض
تباركلاه
لجديد
لصقة
تديني
حريرة
كيشعل
منافقين
كيسلم
مخلق
بالغضب
عقلهم
كتكول
وهدى
لعروبية
لنفسك
ميزانية
بالمقلوب
فعينيا
سكواد
فعقلها
تميز
صارت
صارح
لرك
نوا
##سيا
##شهور
##جفو
##ﺸﻲ
##اردين
انتش
كانحاول
اماكن
السلا
تيغوت
بسطيلة
انتقاد
تسناها
الغوب
تخر
بحيت
حناكو
##اولو
استعم
يقتلك
باغاك
وخرجي
كمام
طالعا
##oua
اراه
مناقص
الحياه
كتكوني
ماعارفينش
مسوولة
حصري
##ahra
fran
دلال
😘❤
##نتها
##حدة
##زما
##زعو
##بيسات
##اعك
الحافة
اوديو
وجالس
##بود
##هيوات
الكاتبة
هزيتها
تفاج
يحطها
يتعرف
وكار
عيونك
تخنزر
##وهري
##متنا
##كسجين
بانون
المعهد
قطعها
المرضي
حرقة
نبلوكي
كسيرات
نتعامل
حادكة
تكمشي
فلحمها
lah
اربعين
نرتاحو
صندالتها
chi
دمعات
كايتسناها
سيمانه
وغطاها
حاقدة
تاهية
رابع
شعيبية
طم
لسر
ﻫﻲ
##rou
منضنش
##ونط
معولة
معذب
معبسة
##بيهم
كيمت
انموت
اليوتو
البغل
البقاء
كنعس
##كيه
وجامعة
لعلى
كاتبغيني
النحل
انتى
تسوط
##وشل
غنبدا
مدمنة
##بابط
واثق
قالتلو
الثورة
الايها
كديرها
##اطعها
داخلو
نبارك
مضلم
سدرو
الحراسة
لاصقين
صدمتيني
abd
وحالتها
ترضى
بمرارة
مضروبة
مكونيك
الجبهة
اضن
حلاق
شرق
ضابط
وداتها
##ونيا
كيصفق
##ستقبل
ايديا
مشاب
##بران
##قيو
##ربيات
##حيات
نسايه
غايح
##موتة
خلاوني
وزن
هبطنا
خالق
فباها
تستاه
عبدة
مناطق
تاكلها
واجعل
##lah
عروبية
يضربك
بعداتو
وفينما
amine
مظلم
وربما
ساحر
الحصول
لفيرمة
التلميذ
اضواء
اشوفو
ثبت
ضن
كفتة
لوف
چلسات
❤❤❤❤❤
##باتها
كيلوم
والصد
كانشوفو
فالتس
لمور
الكوار
وعنيها
غيبقى
مكدب
النشر
لقبلة
تسلات
بشعور
فوقي
بدفي
وفاة
ناسية
##باردو
##فضات
لاحقاش
نطمن
لورد
يصوت
لماضي
بالكلام
يدخلها
يتحدث
فالتاريخ
تجمعنا
حسبيا
الضيف
الزواق
الحزاق
غيديرو
ماشافش
الهواتف
اديد
تاتو
حافة
سالي
سرية
غول
فامي
كفر
##فنا
##امحو
شيف
بعنيها
امرو
السرية
ولايك
تعاملو
ويغوت
وبقينا
محرز
تيكي
اتقوا
حطيتها
بحرف
الامنية
زوينات
فراسهم
الفراجة
الابد
كيعطيه
مطلوب
يطفي
المجنون
تلقاني
البواني
غرتي
لیا
الشمسية
خذو
محروقة
لرجل
alpha
لتويتر
بالبيان
one
ذاتو
غش
هالك
يوج
##تام
##جوا
ليكن
##ديتيش
الماركة
بالقب
ماطلق
وتخل
السلبي
وحاضي
ويص
التاف
الواسعة
وعطي
##اريخي
لحشيش
##هارات
ماماتش
باسلها
مصار
بتمعن
##عبلات
حمادي
جمعنا
الدراما
غادر
هاذاك
ندافع
##اسيوني
##ins
نظرك
يتحط
جداه
اختبار
المكبوت
صدمتها
مقطعين
حويجات
شوهتي
لثواني
الوزارة
جفونها
وبحمده
ade
تقا
جفاف
سايل
ﻣﻌﺎ
##طرت
##ima
##ثلة
##ﺎﻭ
فالامر
وجالسة
ونست
كايطل
##ازيا
وسبرديلة
نسيتها
الرشوة
اترك
موصي
##متهم
الاساسي
عدل
لاخت
##لايات
شوهو
وصلوها
قادرين
مخلياها
2014
جاوبتها
سروالها
نجيبلك
والشكر
عرسك
طفى
لسيارتو
لخدمتك
تعابيرها
يعيطو
سهوتو
المدرسي
فالمستقبل
34
red
زراق
مانا
##باقي
المنو
بالموت
بالعلالي
الفيد
وتنس
تبتسم
وحاولي
##لاميد
ونجيب
لعلاج
محب
##وسو
تيل
تيبقى
تفرع
تسنات
اتعلم
لدولة
ماكينة
مخدر
تجرها
ترضي
صحبتها
كاسكروط
براڤو
زوجا
نهارو
وطلعها
كنحط
لموقف
يتعشاو
عقلتو
خشاتها
فاليوتيوب
كيدايرا
يوتيوبرز
الجلدة
البسطيلة
مالقاهاش
حتاجيتي
ختاريتي
ﻋﻨﺪ
ضريبة
فنية
لخلعة
مفيها
🙏❤
##لغل
##ذاو
ليامات
والماء
والدعاء
فالمي
الفان
باشما
لمدر
وخوها
هاظ
اكتياب
استثناء
##فونة
شدهم
سالو
المتابعة
جنبهم
موجة
تيتس
توليب
مقادش
محسيتش
ولفتي
تقرقيب
سافرت
مرهف
غامضة
الخصوص
قنطت
nad
تادي
قوه
نهر
نجبدو
يبحث
##حكي
##كعة
##😂hashtag
##ﻴﺪ
##خدة
##جوب
##ﺘﻮ
##✌🏻
الابعاد
##تيلا
والاص
##رفها
غيرنا
اوجين
ومرا
نتقلق
##فيلا
الشرك
التنين
تقرى
النيت
##باغي
وفاطمة
مجاب
نحكم
مهلي
بطول
طالقها
تستطيع
لشر
يستحيل
لطاكسي
خدمتنا
تاكسي
العشابي
كيتحلف
الستون
نرمين
متكبر
نفضات
❤❤❤❤
بيريز
دناس
سبا
عوم
چلس
##جك
الدا
##افقش
كتخل
كتاوه
##اوتو
وقادات
مسمرة
وعليه
مرعب
وشدت
##مانينات
بسبك
مقصر
مالقاش
يتصور
تخفي
طيلة
اغن
هكذاك
جديده
خودو
المصرية
لكمة
تعيطي
##ليميني
##ظيفة
تمرضي
لراجلك
البايرن
sm
sen
wh
بلات
خطات
غبرو
فزواج
مقيم
##باتي
##ﺒﺎ
##امينات
##ريان
##احسن
والزيت
بالباب
العبار
##اقلة
هواء
مشاريع
محافظة
مسلك
مبينة
بساروت
وكريم
نقنع
غنعس
غنعاود
نحرق
الشيك
المعسكر
الاعماق
لشاف
تايقة
الايسر
الاشجار
كاليا
بالمجان
##سولك
وكنتي
عوالة
يغسل
كاتشوفو
ماجدة
سنانك
عروبي
تديرها
وماتلو
والفلوس
مشغولين
غنتزوج
##ناعية
كعما
تلوات
بعينيهم
المعيور
اديداس
دالي
زفت
علبها
يريح
😂💔
##طافيط
##ساش
##ادمات
##اميل
ديتو
##افيت
كيلقا
كيزير
انعك
اليام
كنلقى
اخدم
هوية
ايشوف
وتفك
تعملي
الخرية
لعرق
محظو
الكتوبة
كاتجر
##ويز
لقصة
فرط
##ضيتي
خاصكي
مالقاو
فعله
وفهد
##اهمش
مصبر
بحركات
الاموال
علشان
لابغيتي
وطنية
جلالة
دالس
دوى
كيحلم
تابعنا
تاتع
فانك
بوكوص
القبور
سلخ
وسعهم
محيح
not
tl
غتر
كمن
مانيش
##ضورة
##ظف
##يدش
بالقوة
البث
ايزاك
الشبه
##وستيم
سيء
سيية
لقلبو
وسادة
الغبي
يتعاود
موريت
##زيدك
عمرت
سلامتها
تغم
حيدر
مكتفهمش
##ونامي
الهما
اقدام
عجبكم
ازهور
يستاه
سخنات
تدع
شهيتيني
والحاج
##طالق
الولين
وذني
كتفوه
والخدمة
ماعجبنيش
يخلينا
قيمتها
الملحدين
سعودية
اضراب
فخصرها
sk
son
جدود
دلق
دقيت
عوني
فندق
##نكش
##ايتي
معاني
معمرة
كيبدل
والتي
بالمل
متقطعة
ليكارد
الوالي
وعنيه
وصا
غيشوف
برادة
تسطى
عمتو
اصيلة
الغام
يسال
وقالك
الانمي
فايد
##الوريا
عافاكوم
عضاتو
صديقك
نخليوها
كحز
قولوا
تلاجة
الافر
خوافة
كتصنت
##خاصمو
ومكاينش
احترافية
مسمعتش
مداهاش
لبارصا
رحيمة
قبضتو
المبادرة
31
dar
ph
دقا
زفير
طامع
لديه
يوس
يفيقو
##اليدة
##اتدة
فيكون
كتزير
##اديمية
بنيت
وحلف
رجب
وصورة
تنتاح
تيط
وشداتها
نساني
وفض
##خصها
غنى
مهنة
وزفر
تالت
##تلر
سورية
سبادري
بروح
فالقسم
عالميا
خبارها
طيحتي
##عاده
##بورش
تجاوبيني
مركب
ساخنة
خطيبها
عكوز
بالورد
فاحسن
يعيق
غارقين
تاصلت
يقيسها
خجولة
av
fe
ik
تلعبو
سوكا
يروح
🤣😂
##طقها
##ﻠﻴ
##افاك
المالية
انفر
والبرد
الحفلات
##رونا
العسكرية
##كلشي
تبوح
تعوم
ويلعب
القاضية
الخدمات
وعقل
ماتبقى
نوميديا
ريزو
ريجيم
ورز
وهدر
مصيف
شوفت
غتعرف
نحبوك
المسكين
عفط
##نتيجة
وطارت
وجهكم
طلقينا
تحلفي
كتفوج
زواجهم
حاضيني
##ميساج
الطيور
تقدمت
جبتيني
هاتفها
يعاونكم
طابلية
بلسانها
فجنابو
غاضبة
يسيطر
كايترعدو
wal
عوا
هاوا
##ظاهر
##ابرها
ديباردور
معدب
##احتي
والرجال
ولقاتو
##وقها
امامي
تحمي
القل
الجفاف
محاربة
كيفطر
وعنقو
ميلان
هزهم
دخلتو
لقص
كنتخيل
يتمنى
##عداو
لواها
عايلتنا
يالالة
خصري
تهلى
مهدر
وجلسها
فالباك
فالدخلة
نكافة
خشاتو
##حتاجو
ميساجات
##ose
الداخلي
وجودو
ب3
حبت
صوري
هی
##شكون
##🏃♂
منتوج
الهج
فالكار
ماضرب
اخرجو
اوعدي
لبروف
##طونا
زوبيدة
##فسد
دخلتها
تسناني
ماكتح
نقين
حلالي
##لاهبي
واغير
المعهودة
فهماتو
جلدة
نخطب
انسانية
واصلين
تاوصلو
نسيبي
فجيبها
##يناتناش
لبراني
عنيف
##غنيو
غاضب
new
بيلانتي
bu
تg
عضة
قابط
لپ
##بحة
##قعات
##ليسة
منصب
كيضرو
كيخلص
المقولة
كتابة
##لويات
العلو
امراض
مشاله
##اصلات
##قوك
اساسي
التلاجة
محتر
الوشم
مغلوق
يحكي
يتغير
##بقها
بتن
وغادية
فخور
كتحلف
يصرف
2010
طرشة
النعناع
الادمان
##جاوبك
تنتف
تلاقى
##غوطات
تافاف
سبابو
اقلبي
فبعضي
your
نعتات
تكتبي
جماهير
معصمها
كلماتو
المعتاد
تكوين
وخشاها
dyal
تليق
حنة
زريعة
صبيطار
صرفق
ضياء
هامس
يفيقها
##ادثة
فالهوا
ماذ
##رحك
##وجين
ولاسف
لبوط
ويوم
محدود
دارلها
الكذب
وعضات
تنقي
تقس
تفرض
فيناهيا
يحد
بداخ
تشافيك
مصرة
عقله
ديرلي
##قراش
يشوفوه
كتعطيه
وانتوما
ستغ
المحلات
لاعلاقة
كتبلع
فاسبانيا
وابنا
البطالة
تنتاقم
تبقايش
الازم
لمشاكل
شتاء
اندخل
توقيت
198
دهنات
نضربك
لودن
سايلين
حويجها
تقلقتي
##یتی
ودفعاتو
كوميديا
يقوليا
التقليدي
مدابزين
ذنبي
زهرها
سنها
شمش
عین
لصد
نشا
##يع
##لز
##يروم
فيدك
المصور
##اهلاش
##اعتها
##لوز
بالكون
العافيه
فالسو
##سيكي
وقليل
بغتي
لبني
ونر
كاتسنى
النگ
النبض
##وكية
قالينا
وفاي
تخوا
قربلها
حمزه
##وصف
عصرية
الدراسي
تكرفص
قرطاس
##oul
المحلي
البرصا
عاجباني
الظالم
بريطانيا
فالخط
نصيحتي
لوحيد
كيدوزها
غندوز
شمايل
فديوهاتك
بتحذير
المزرعة
ختاريت
يبكيو
وتفكرات
بتانيب
باو
بفو
خوال
طوا
غتك
نديه
😂❤
##ميرة
##شتي
##فلت
##ادهم
الحداد
العطر
هيج
##ميط
ايمشي
لبحال
احل
ابنك
محبس
##اليف
وصيف
مبلي
تنفكر
##ونيل
مزع
الغنا
مخبع
بجان
براسه
كيندير
##فرجش
كايتفكر
بنفسه
الاستادة
موتة
التقدير
مزيرين
تلاحو
المفاجي
العقدة
كنعقل
##use
كرامتها
لقيتيها
مدارش
ومبغاش
كايدورو
حاشاك
العاطفة
كيلتاهم
تامة
لاهي
##نتو
##تاوي
##گار
##فاصيل
كيبداو
المة
المية
كتخليني
##اجلي
انطلع
الحياء
##شوفوش
وتنوض
لبان
تعبان
ويولي
الجرايم
التضامن
لحو
##فوتها
تمسك
ماباقيش
لفات
نحتاف
غايدوز
قلتلو
حاله
##صرخ
لجد
##نديل
##عتني
جبدي
##ولدش
نضتي
كيعاودو
طومو
شكاديري
فالتلفون
عروض
قطاع
كيتحرق
صرخ
البواطة
##iane
وبنتك
صيام
سحابلي
تخيلت
بنفخة
copie
was
جمر
جوا
دلف
زورو
ورفع
يسيفط
##سكا
##مثل
##ضيرات
الاري
الانا
كيكره
العمق
كلمتي
السابع
##قوبات
وياريت
الشق
لعبتي
مسكن
وعطا
لحوت
وشداتو
##املين
الرقي
جيمس
علماء
دالصباح
قرون
لصقت
وماقدر
تخلعو
الاجهاض
الهدايا
تصرفو
المفيد
والصبر
تنفسها
مجدولين
تلبسها
روتينها
وطلبات
qui
نديوها
تبلوكا
mr
nas
شدا
قلاوي
واهي
##عنا
##بحال
##34
##افعي
المناسبات
الهنود
هيشام
السيت
السحاب
متعرفي
القهوى
##ومبي
برشيد
ودعو
وشفايفها
مقربة
تشنج
تواصلي
مصاص
ياسمينة
سمعك
الاسفل
تغوتي
زعف
الثلاثة
فلكل
مكيجاوبش
فجبل
سخرية
مطال
المجنونة
نعسها
تلح
##خافض
بعضياتهوم
كيجيك
كرهتش
صابرين
وباستها
زرقاء
خاسك
القطعة
الانفجار
مجرمين
السوهابين
ag
hay
وتيشورت
##دايد
##جبة
##قاط
منديل
##امون
كتطل
والمل
##روضة
كنرتاح
اوزان
الستيل
احرار
وحنى
مسالية
الوحة
كاتمة
لقت
بينالتي
هدايا
يالطيف
تهزها
تهبطي
اجو
نشرو
فدرب
تكالما
دوزاتها
فنضرك
##هلش
قرتي
رقمي
الورود
رحب
كتخبط
كذبتي
نهاري
ﺍﻟﺤ
ونزلها
لمحامي
live
الحسنات
كرهتو
##ity
بادب
فطرنا
مستقبلا
فالمصعد
تبورشات
cal
mat
rt
ازوينة
بمت
جاس
جني
حفر
ستا
لزم
ﻛﻨ
##ﻮﺭ
كتمت
انصح
والسر
بالصور
العون
العزو
##كونات
ومافيها
##طيحي
الجدر
الصدق
الشط
ونرد
ونبقا
محق
كايضور
كاتدوي
مرخي
تقادو
لكلا
ماتبقاوش
ماتعاودش
ريق
##ودانت
نسل
تجرو
وجهات
غاندخل
حماس
نيهان
نشفت
مهدودة
نقولكم
كيقادو
ماسول
وفيك
برجليك
مضمونة
حاضيهم
طفولة
افكارك
غامض
قفطانها
ليبغا
المليار
القاصح
الساحرة
مامزيانش
توم
راعي
رابعة
غفر
هلي
##صني
##فضو
ليغي
المحس
المكتاب
فالزواج
اوبس
السري
السمك
تحترم
القليلة
علاها
واشراق
ونموت
لمف
نعنقك
ماتقيس
ريس
وشورط
مقتل
وخوه
مخلاو
مايخرج
كرهو
جوابو
##حتنا
تركيز
مابغاو
لتكون
ستون
ايده
##فهميش
ملقاتش
انوثة
ردخ
المتد
فرجلو
غزاله
لالمانيا
الشوافة
خطيبتي
ويخليكم
مامسوقاش
فركابي
خناثة
الميلاد
حبه
طلاب
##ديني
##ادلة
##ديتو
##يتوا
كتفر
##لوكية
بالشر
الباطو
##كونة
كلمتو
مشرف
ماتز
ودين
نسخ
رجعاتو
بليس
مابقيناش
الاموات
جاتهم
حالمة
سيرفور
دوبل
مكيعجبنيش
هذوك
عدسات
الايكات
فسروال
البراد
تابعاهم
يبغيني
##اجيو
يكدب
كيرجعو
البالكو
##تسماش
وقلبك
موحش
مستواه
ذهبي
ﻭﺍﺣﺪ
الامريكي
##فليقة
اكثري
نقوليكم
شمكارة
طلت
قبية
##فينا
معر
المتهم
انرجع
بالبر
##اخت
##كنش
ولالة
بعرف
مشتين
وتمر
تحاولي
وحكم
شافية
##طوع
لحج
برغم
رييسة
اصول
اعلامي
ماموال
##مسية
يالك
لجين
المعلقة
الريدو
تراه
مثيل
بوضوح
عشتو
الايجابية
##طفل
باليزتها
لفيها
لموطور
شكلك
ميترو
بوكس
الانتخ
الموسة
الوجوه
التصريح
شهيق
تشتركو
اجتماعية
الفقير
وعايلتك
البطيي
sta
ثورة
سطوب
يمرض
يصيفط
##زتي
##ly
الاجي
كيطيب
الملع
المشو
المرس
##ندوق
بالواجب
العبيد
مشاهدات
وجمال
##قوي
القرودة
##عيون
مكندير
الطين
##وزوز
ورمضان
غاتلقا
مستح
دورك
##واجه
باربي
اراس
بفمك
سبقات
لبستي
كيرتاح
ويتع
والسعادة
معيور
كيغوتو
كتجيها
كيترد
تولفي
لوداد
فطورهم
فجبهتو
تحولت
استغربات
تقابلو
نتهنى
لراجلها
sams
بالدوخة
الادوار
38
تيتر
جافيل
ديرة
رانية
ضبابة
كغ
نكره
الثر
فيع
العناية
اشفها
اشعار
متازة
نتم
الدك
الجنو
##عياش
الكليب
كايقلبو
بلاستي
##ترنت
يتقرب
تصاحب
##شوع
عقب
مدلية
غتشوفي
نيفي
كتحول
كينشف
تخلق
نظارات
كتخبي
والعرق
حينما
مخرجها
##درويد
فالباج
امامو
زدحات
اضغط
تربط
موالفين
##غامزو
الزرقاء
bravo
این
طرت
ظهرك
قلم
قحاب
مارح
نصلح
##اگ
##جربة
البناء
##كرين
##طيبة
تبورش
##قونا
التخلف
مرضية
تقاو
مكة
تفاع
كنترعد
مونا
ماعاود
يسولو
يشم
يشطح
##رقم
بصحتو
بانليها
غانولي
المشطة
المعزة
طيبات
طيحت
يستطيع
التعريف
التوانسة
##هزش
طبعات
حولا
صيفطو
عبرتي
شرويطة
الملاير
كروشي
البوسان
لكوافوز
كيبقات
الفديوهات
يساليو
##قلقش
طاقتها
فشلانة
رخات
سطر
فرف
مطف
يضر
ہے
ﻓﻲ
😍😂
##ﺮﺟ
##jd
اوام
ومتك
مته
##بونا
الدهب
مسمن
##قاهم
كايخلي
طلعوها
سمعتيها
لهادوك
الشيعة
وطار
كينبض
عداوة
شهرية
الروز
فحياتهم
كتحسب
##بروا
الربع
رسمت
كتسمعو
الديسير
هانتوما
نسيتيني
شبعتي
اضطر
نحسب
صبعان
مخاصش
عسكري
الزوينين
وابتاسمات
المخلوق
طاسيلتك
بخشونة
ثغرها
حديقة
شمع
غابت
##نشة
##كوت
##ادوس
والبي
والقر
بالاج
العادات
كنعيشو
بغاتك
تحاسب
نتاحر
الصدع
الخاين
وعروقو
غيبات
بصدرو
تقادي
تقنية
تسلي
مقهى
يسم
لخوك
الانست
مانو
المعارف
مكاينينش
يهبل
بوعشرين
طلقيني
طريقتك
لتق
الذوق
كيشهي
تاتكون
فوجهم
باستمرار
ارسل
بيدما
كيطلو
تعرضت
بحياتك
قايلا
بوجهك
وعمرني
عصبيتو
تهوا
خافو
دقي
صبيعاتها
مديش
يغر
##les
##خلاش
##یان
##ظحك
كيعيش
الحرس
اليان
بعرض
وحتي
الشلوح
وعلات
مكش
لكليان
نساتو
لفترة
غانو
غايجيو
##لهى
جمالية
يجاوبو
الوراني
لتيران
كتعجبو
المنظمة
تعليمات
شريتو
شديتو
بعقلي
خاطركم
المطاف
الشمالية
خطيبتك
الكانابي
بمد
زربية
صولو
قاسها
ملام
##تمي
##عتها
##زرة
##النا
##ينهو
##ابيس
##بيلت
##دودها
اخونا
وقتل
السلة
ومشي
القز
القاب
##لكوم
مغنية
وشتا
يتربى
قلبا
مصاح
بتص
افريقي
كيتبادلو
وكيضحكو
ديالكوم
المواهب
يخطف
وزد
كبيره
فجناب
كيحرق
مادو
الايحة
المجهودات
اوفر
تاوصلات
مكملة
ختفى
كوليها
وتقدير
##ذهول
اشوفها
نسولكم
بهضرتو
orig
توفر
خيت
رحل
ملات
نايب
يرب
##74
##pt
##❤🇲🇦
الحكمة
##روات
فالشي
كنضحكو
مشرو
متبد
تحافظ
##طيفة
##بوية
تعصر
وصراحة
مكبر
مغيت
وشافيها
يحسب
تخدمو
##المغرب
لفينال
غتلقا
نحرك
ركعات
فلن
بلاصته
##عسش
الروعة
قتالة
ضارها
2013
دينية
##ثيقة
الاكاديمي
عيشين
الخشن
يحسابلي
الهيية
ومعرفتش
تسمحي
الاكسجين
دبال
ربا
زجاج
شمعة
فغير
فكيف
##زادو
##👩👧
فيل
##اهلة
##اهوا
##دونا
بعضة
الفح
##اديث
مشروب
السوي
نتفك
القناع
الجان
الخبرة
لعكر
##طوة
تنج
ميح
تقالت
##ونيط
مغريب
تسطا
تسخن
##ديولا
الغش
بقايا
تشغل
غايقول
جمالك
بوطيب
لبيوت
لايك👍
واناري
التيقار
وكنقول
قدراتش
##تموند
لفيه
فالكلام
فانه
وشافها
لمعقول
الاتصالات
كتغلي
يفهمها
توقفت
come
يقوليها
صارم
فوذنو
والمسلمين
ﻛﺎﺗ
ليليان
تشافاي
مهوس
الجلاخة
mad
سوب
علو
##عبها
##خري
##نافس
كتض
كتخلص
##كونوش
امحمد
اشافي
مسال
مغري
تسلمي
وخير
مخلاش
توريه
عندكش
##وايد
##طعن
نحشم
نشريه
يخطي
ترمتها
نفوس
وطريقو
بنتيلي
##تلال
مريكان
يرزقها
صحبي
لوراني
جرتها
وتعض
فتحها
فالحوايج
##tis
ويرجعو
ومتبع
##ابراهيم
صورها
ناقش
نايك
نغني
واضحين
الارمي
جزايرين
كيكول
تامارا
بالطبع
مراقبين
رفيسة
تحمقني
اليابان
hana
جلب
جاكي
حقت
فوس
هروب
##سكو
##صعب
##ﺎﺍ
الڭ
كيقوليها
المكن
##احا
##طيحة
لملف
مسموم
وصيتك
تقدا
كنتف
فرنس
اعطينا
بدرجة
اتاصل
عارفش
عارفينك
##كسون
المسكة
المشروب
المشاهير
السيمو
خلاته
حاجتي
رحمها
فصحتك
جنبه
يطريه
##بزاف
فنانين
امرابط
لعيبات
باطما
اخذت
وتلفتات
انترنت
سلس
غباء
لک
##نطق
##حمش
##كاو
ليوتوب
فيدين
كيديه
المكتبة
الهيل
##احم
والعم
فالگ
بعمل
تبث
ماشاله
تيبوس
ماتقل
وسيد
بشري
رجعتو
يسلمو
عطية
نحتار
واغفر
الفرن
##ليكوب
لسنة
سخونية
تدفعو
لطالما
ملهي
ساعدني
##نايية
والعق
##افران
كيصفر
الربندز
صوتوا
ختارو
وبالفعل
فهذ
يابنت
ادومة
لبواط
وگلسات
تحمقيني
رجيلاتها
طبطبات
are
تاين
حواي
شلون
صرت
غصة
قديت
قاميجة
ندر
##بدو
##ﺎﻓ
الروك
كيتي
والدو
الحمي
بالهد
متال
متمكن
تحميه
بنور
تبح
القتيلة
اسبوعين
الشمتة
التطور
الكارت
##اريتي
ميلي
مكسور
لكين
يتلاقاو
وكدير
مجلة
قلبوا
قلباتها
يشك
نصاوب
يفضح
ناسها
##صيش
مكيهمش
كتعلم
والحياة
حاسا
##ted
خطوط
لوالدة
عاطيني
والصحة
الهايل
كرسيه
هءهءهءه
وخاصني
لواليدين
ماسمعت
##سكتش
ترضع
فعيونها
##صانص
استدارت
بﻻ
بفوطة
جاهم
دادي
كيري
مضلمة
😂😁
##عفر
##لفو
##يرون
##لوات
الحف
ولون
ويسب
مسند
مسرعة
كاتسول
تقدية
لحنك
بعده
بدموعها
تمتع
فقهوة
غايطرطق
حالنا
جابهم
هازاه
سكتها
اغير
وطب
فباه
وكلت
لسق
تعرفيه
خديتها
يقولوا
شكاية
كتبسم
زواجك
يعطيو
لوحيدة
حلمها
نقصات
مكياجها
بكلامك
كتلمع
الرياضيات
الصندالة
وريحتو
شيحاجا
تباركله
نينجا
درويشة
عور
قامت
##واط
##طس
##ضمام
##ليهوم
كيضر
العميق
البندير
كنعيش
##وقات
امتحانات
متعرفش
##اصلة
احساب
##انيل
وحرام
الدزاير
الدايم
ونخليك
لعبه
تنور
الطاير
##وشوشو
وفالت
مامتيقش
بحضور
مده
غانعاود
نحكي
تغيرت
وزدت
بوغ
فمق
فكراتني
فصاكها
بالمزيان
المقاطع
2012
نباتو
اختفى
واصحاب
قتلتيه
السواعدة
الشعرة
علیک
ماباغياش
كاطير
عجوز
##اريزما
شياطين
حلمك
شباط
صق
عساس
غاف
غسيل
فتش
گر
##عورة
##uck
##فاه
##ag
فياسين
##ريسة
والضحكة
##اوهم
كانح
بالانت
البدية
ومخرج
متفر
##ومات
##خليهم
##ايرها
ودقات
##ترمك
وراس
وكدور
غنحماق
الانفس
غايش
##قدك
تغتاص
##صبني
بواخا
الورث
طلقوني
مادوز
نادرة
##ang
##فهمها
نخرجها
تلاميذ
جسمي
فبلاصت
يعترف
مخرجا
تصرفاتك
وخليها
خواتاتها
المثال
فاعل
مستواك
big
ضايعة
الزلزال
ثيق
زرو
هون
يرى
چالسة
##دقايق
##خافيش
##بيتي
كانكون
بالرو
بالوجع
العظ
اليغا
##وقفة
املاك
مشهية
لبكى
تعشات
تعشينا
نتفارقو
الدخل
الجداد
اسالي
التهم
تنص
تقري
الطاقم
وسهل
##تحرك
الغبية
تصاوب
ماعاج
يسدو
##ثرت
توضا
##رقبو
منوعة
غنية
نشجعو
اصلاح
204
تبعتو
المنظ
##خيب
كيسالي
لولدك
كدابة
الضوسي
كنبغيوك
السوء
فاليوم
لمخزن
بهداوة
مدابزة
فالفايس
ماقلتيش
الصالير
تيرا
خبير
شيرت
فبحر
##زعت
##🏃🏻
##هادي
##لاصي
كيعي
كيسك
المشا
##يتهاش
والخلعة
فالرك
مشبكة
متمشي
##لعي
القلعة
لعظم
محضر
الوين
وصدق
كاتنهد
تنموت
تقحبين
تفوه
دراعي
مقهورة
اصاب
يتهدن
موامرة
اخره
وهكا
فرحتو
غنق
نصبح
باغيش
مفيا
وقعلي
دوزتو
رجلينا
##وانات
العيادة
قادين
كيبانلي
دمدومة
##ليباطير
الميكاب
رتاحو
وخليت
##خدمش
فبيتك
##🇩🇿🇩🇿🇩🇿
وافقات
الصدقة
النقاب
غضبان
التصميم
ورويا
تاصلات
غفلها
الشوكولا
##sef
مصلاحتك
بانفاسو
فالناموسية
halawi
بكون
خلوق
نال
هرو
هربي
##واو
##ضش
##ضف
##ناكم
فالفر
كنحشم
الفصحى
تحقي
نتصور
##لمل
التالية
الكاملة
وعاون
وصيت
كاتلقا
ماتخل
الطاسة
ودعات
نوغ
ورش
شافته
قلبوها
نقادو
فقرة
فقيرة
نحنا
مانبقاش
##قلبها
صوتهم
الثور
##نبولة
دالوقت
يشوفهم
وفيهم
ماجيتش
كيقولوا
شمسية
كتجيك
ونوريك
ملقاش
محسيت
البسمة
اراضي
مخاصكش
وبنتو
وجراتها
خضرين
الاحتفال
الفيلالي
الارواح
قانوني
سامسونج
دفل
رضات
عبار
نشو
نقوليها
🤦♂
##نطير
##داه
##ضلة
العنب
فالبل
ماطيشة
اليوس
كنكول
بيكي
##اصك
تباع
الجندي
كيفرق
الوداع
وعفاك
هزيتو
لحقات
لحلقة
ماتديش
الطارو
نود
رياس
شعرت
جيلين
مصيفط
بتفهم
كيتمنى
تزدح
##اويخ
منكدبش
فشكال
##علقو
مثله
وطالقة
تستعمل
مريا
##ضروش
الابر
كالما
بالمهل
شهق
الحلبة
يامك
دفعي
طبقات
وحطيت
بركت
ويديرو
لجيبو
التقحبين
وشيماء
يتسمع
فامهم
حارين
يخلق
الهواة
تكوان
##🙏🏼🙏🏼
nou
رخا
عونك
هتلر
##حور
##جبوك
##هوب
وقميجة
##ميشة
احكي
رجلة
الخلاص
لكورة
##لسطين
الغنى
تصيف
بتعابير
لفديو
استقب
مدموزيل
منيب
الفيديوا
يخنزر
بغاتني
فشلت
يجعلك
كارل
سولتي
دكالة
واكتر
مخلطين
الكوميسارية
ونزار
بدراعو
لافير
بامتنان
تضربات
##عطيش
نضراتها
فنظري
كايبغيها
##afa
المعيشة
bas
po
sad
كلية
واريج
##حشة
##صليش
##اتين
ليدو
##ديف
##افى
معشر
##نيسة
حتارم
الحفرة
فالاج
اليسرى
ولداتك
وتحياتي
القمع
##غيس
الشقيق
ونخرجو
لمشفى
مسجل
النمر
ياثر
ماتزوج
يتلف
اترجع
وكولي
مدلها
المسامحة
غاتقول
مستمر
لجوج
ورجعها
قراه
قراري
وايديها
فمصر
كومة
شرسة
بايدي
فسارة
يبني
بوسلهام
مافيهم
السبور
الذياب
##حاولش
الاصيل
تعلمنا
سامسون
زدحها
كتكذب
حصان
شمايت
فازكين
##سلمش
فالزيرو
ماتنساوش
تقهرت
tr
تويل
حاصل
خاطي
شيري
صلاتها
عمان
لكرا
لهوا
مديت
نوفي
نافع
يوك
##ینا
##ﻠﻪ
بالكو
العاقة
اخل
الفطر
ومشيتي
ومزيرة
##كتيني
ويبقا
عنف
لعينيها
##مدها
تيمشي
نعبر
تفوج
لحتا
اهلي
ريفي
وشافو
مقبوط
اصرار
اتاجه
وقالها
جميلا
فحالتها
بطنز
مهملة
شداتهم
##عتابر
كتعمر
فساد
لنادي
المصدر
##نجح
حوالي
سامع
##رمادي
بتسمات
جريية
خوتاتي
ويجيبو
الرييسية
تحنحن
بويض
اجازيك
halawiyat
ak
زربات
فدوش
وذن
يادي
کو
😂ه
##طيا
##🤦♂
##ارث
##املات
المات
##احدة
كتولد
والاف
بالحكرة
كنصوني
مشطات
##اصير
##كلخ
تبه
##بوي
الجولة
مبادي
ميمي
ماتكمل
وسمية
##عدك
##متيني
يشهد
الاندية
نصوت
تهنينا
يخسرو
فجنبي
روبو
الايادي
قصدو
##نكار
فصف
يوافق
تلج
ضاربين
بثقالة
ضوسي
ونعسو
بهاءالدين
وضربو
##فوتش
جامعاه
وعرفات
##صبرش
فاذا
راءعة
لاغوب
بظهرو
لنوم
فداخلها
لصفحة
37
اغي
حوم
حصلو
كوز
لنعاس
يركز
##لذ
##39
المعد
فالقران
كلين
بعنيه
##نويات
وتاكل
تبيني
القطات
الجمي
التونسي
وساهي
ورانا
لوص
##ثرين
غنحاول
##نزلي
اجلال
##عملها
حالفة
##صدمو
خالص
تعرفات
##سولش
المخاد
حلوين
##صابو
##ons
##فايف
##ذرني
فورمة
زفرت
تولف
سخفان
وطلبت
يخلصو
ياعمري
بوتفليقة
شميشة
لايغادر
نوك
##كورة
##my
الالح
##تيام
معتق
المادية
##احبك
والاق
بالنفس
فالدي
اليامات
##كيسان
وقيت
ايولي
وتاج
متناس
متقيس
احبه
##قودة
الدافي
##وماش
التهمة
ابرة
محنية
الكذاب
تقف
تقطعو
##خليج
لكاميرا
وده
تسونامي
اعايشة
عيوب
تواني
نصاي
كرزات
المسكينة
دالبارح
الفرماج
خطورة
حليتي
لتبيض
وايدو
ومعصب
صحبة
تخلات
##هزها
فحياتنا
علمها
فالقريب
الحريري
بالصمت
الاستقرار
فمكانها
كتجيه
عطيونا
النظافة
السعيد
ساخطة
الصابرين
الشوكة
المسرحية
الكوميدي
mas
op
ثبتي
ثوبة
زام
سابقة
طلة
طموبيلات
كهرب
لخرج
لتيليفون
😂😍
##ces
كيلوح
##اودة
##اواة
الحلة
الحجبان
العجل
السرب
ومكره
احيك
##مرد
الشمعة
التالت
الوشام
تنقلب
مراحل
اصلك
وقفوا
اكاديمي
وفت
مصم
نحت
غايس
بكاع
ينشر
الريتم
مرحب
##قكش
##غلال
ارجوا
شوط
المقبرة
عودي
وابتسم
القيادة
التجارب
تقلقي
##طولش
العمومي
اسلوبك
انغامي
black
##نادي
##زور
##خوف
##گم
##هايم
##اكرية
معاجب
كيلهت
كترسم
العوجة
اخيتي
##سيط
بعبوس
امتي
وتريكو
السورين
ولاحو
متشوفش
##اصو
احبت
تعتق
وحسب
اسلامي
##اليزة
##لتني
مراية
ماتب
ماتخليش
##ضيحة
فعماد
غنقوليك
الانق
وكيما
اجانب
المونا
حيدتي
بالعيا
فتالي
فسابع
زوجتو
بيتهم
ماجاب
ودارها
مداتهاش
مدرتش
حصريا
اثمنة
مسيكين
كاتسناه
بالفرونسي
ملقاتوش
السينما
تطلقات
##👍🏻👍🏻👍🏻👍🏻
jo
ul
خنان
سے
يود
##اغل
##ءان
فالافلام
كنلعبو
القميص
مباريات
فيناهي
الطرفين
الطموبيلات
وشير
يحتار
تسلط
اعمر
##بانوش
عطانا
##رسول
جلساتها
نشكر
##سرع
فهموني
كيحمقو
سوميج
مارشي
كتسارا
يغلب
يحيك
الكويت
بركا
كيدفع
عقلكم
كوليه
النفوس
التكشيطة
وحالة
بلسان
غدارة
سوهابين
مكنعرفكش
محسوبة
ترخاي
وبالتالي
كفيلة
iden
شجعو
##حز
##ﻮﻭ
المصلحة
##روم
امرات
مشبع
ومث
وملق
ويخرجو
الجنازة
وعاقد
وصوتو
تنضحك
لحديقة
اتكوني
اكتوبر
فعلي
تصر
مخبعة
مدارس
وكتح
فخي
معرفتي
##تهى
سوما
ياخدها
الاوان
الجوانب
يبقي
برودوي
الافعال
فالقاعة
دخليها
##يكسيون
فيراري
##ولاندا
لميمتك
وفرحانين
صدماتو
##ضاربو
ahmed
طافجة
ااي
اضع
خبرو
عقيل
غاني
فتس
قوات
لتا
نكري
##تري
##ber
##ﻜﻮﻥ
##ليود
كتهضرو
كترضع
انصر
##رفان
البترول
ومكم
متول
تعق
تعداو
تعريف
القش
الجالية
التريكو
##عيقش
تنتق
ميخرج
الطاس
ودورها
اعبق
الغذ
الرغ
##يريو
فعنيه
توصف
حمير
حلقو
كمامر
فبنت
رقبتو
vie
نوضح
كريما
لموك
كتعرفني
لفراجة
واتاي
الاصفر
اروح
تحطها
وتشد
غرقات
كيضرك
استغلال
نيسرين
اقتصادية
بمثابة
بورك
دنو
رباح
ناهي
👏🏻
##عسة
##ظها
##امتي
##ونجي
كتحت
كتقدر
فالتح
اليمنى
وقل
ايامي
نتاعي
ويجيو
القناعة
الخانز
الشغب
الكافر
كايجيب
شفارها
##وزا
ياكلها
مصطنع
##رينش
بكف
جمعهم
طيليفون
سيرتو
ترش
قرارك
تحبسو
الدودة
تانشوف
فالصاك
الميزان
دعاوي
اعتذ
مزيرها
تزيدو
رغما
ومابقاش
کیف
الغياب
وجودك
ضيعتي
فاعلة
محسوب
احاسيسها
دالقهوة
تظهر
تكرش
شديدة
عضيم
فروسيا
کل
##غرق
##ثا
##نايا
##ولكم
كتبع
كتعجبك
البناية
##ميطات
ايج
##اديتي
مشو
ونريمان
لعط
محلات
كاتعرفي
غيموت
ميق
عمور
##عدت
تخسرو
تمكن
وكيلعب
فهمي
مولفاش
الايف
فصالح
مبغيناش
تابعاك
ماحاملاش
الناصري
بالجميع
والحزن
كايتنفس
##ذبش
رجاءا
لمنور
لطيارة
ناقصني
النجمة
كيطيرو
##idi
وندخل
منساج
المطاعم
بالموضوع
اتفاق
مجهودك
صالير
المكلخ
البيرمي
الكفاية
التهامي
بمي
رقوش
ﻣﺸ
##مبر
##مالة
##ضه
فياسر
كتدي
والشو
العطش
##اقتش
##هوما
وقرت
بغباء
السمو
متستاهلش
بزاز
تبلى
الصوف
الصمد
التبن
تنهضر
مردود
ميم
لكاب
ماتحل
لقح
برعب
فراشي
تسولها
مقلوبين
شعبان
الغصة
جيمي
##ماتك
ماعجبوش
وهني
بحذر
يشاهد
##يلتي
المشجع
يجيه
الدراهم
معرفناش
عفاكوم
##قراه
كينطق
نضبر
فتصاور
عاودها
##سبريس
رماه
ربحتي
فزك
حكمو
البيضاوي
صارمة
كيزفر
##حتارمك
ثايير
التافهة
باتي
ضدي
عموتة
غذ
غنات
نيني
هجم
##فقد
الهندية
كتفات
والخير
العوان
فالبطولة
الفهم
الفاخر
بنج
##افيتي
مسحو
نعود
مكيدير
تاير
شفناه
يحضرو
تسرع
مصيرها
باقل
تزورو
تراك
ساليتو
نضور
تفكرني
البراكة
لاعلى
المجيد
اكتفت
متبعك
صوره
تركت
التلفاز
خوفو
وضربها
لبرهوشة
جاهز
وراقها
خواتات
عاوديلي
##قوليهاش
ﻛﺎﻧ
وماماك
مابانتش
ماخلاهاش
1m
تلطف
جغ
حبتي
ذخل
شاربة
قبح
هاع
##نهم
##طوف
##شخ
##شنو
##عتي
##ﻌﺮ
البيل
##اشرك
##اشفو
كتكمي
الحنك
الحنش
بعتاب
تحارب
تبلع
القطيع
القرفصاء
##لكو
مبني
غيبدا
الاثار
تسمي
نزور
مصاريف
غنج
تغري
يجيبك
قالتلك
فخضو
نفخات
الحلمة
السيدات
يفرحها
الصحافي
كتبتها
فالتصاور
كليكي
سناني
كيدعي
صيفطي
وبالخصوص
رونج
مفرقين
البشري
لبنتك
شانق
الحزقة
وخاصو
بالاحمر
الكلاسيكو
فالبيج
ماسوقيش
fok
ستك
لتك
نكس
##عدها
##عبت
##صبك
كتبقاي
انقول
ولين
كنشم
وتحر
ومخل
الشارج
التام
##نتف
اكو
تصفيقات
##ماتيك
مصورة
يشربو
بتفكير
بانليا
##فتيني
مهيرة
يجيها
بيكوم
الكرم
تلحق
قريتو
واجمل
فالقضية
##ens
صورت
نتعصب
خلقني
كاديرو
صبحنا
رمقها
وخليه
تيقار
تيقيني
فازكة
كرونا
inter
تعتبر
سايس
يدويو
اتصلات
تكسر
ينفاجر
ويجعلها
المستقبلية
دقاتو
ملين
نبعدو
وديها
##ﺎﺗ
##ادت
منكونش
منورين
ديمار
الموز
كتلف
والهيلا
الحكوم
##روبية
فالوراق
##هورية
##هوشات
بغة
اساتذة
وعدو
ميقدر
اهلو
بستو
اصفر
الغفلة
اتبع
وكايح
يسرق
مخو
##خصو
عايلية
##وهان
بخاطري
##بابي
تزدحات
وكيس
بكرة
تكشف
الهمة
##ارحو
قرينا
يشوفوها
عبدية
بارا
كوغ
كتشرح
التوت
##سيفطها
ماجب
مسحاتها
الذيب
عيدكم
تنعسو
yousef
فاكادير
والغضب
وخاصها
متسوقيش
موظف
دلحوايج
mbc
fokaha
04
pr
اضعف
درة
لهما
ماسم
يطر
يناقش
كيبيعو
كيعيطو
##توح
العداو
فالدين
بيغ
ولاول
تعيد
الجواي
لمكياج
الوار
وصابر
بسلا
وفك
وفتحت
وهكذا
شوفتها
افتاح
غنقولك
فخطو
طيبه
مكيعنيش
##ادرش
يستح
راحتكم
يطمن
انوثتها
كحلا
##قفقف
علمية
المستقيم
سنگ
هربان
العمراني
شميت
وتكى
حيوانات
غلاض
يتخلى
خجل
صرح
فزي
فلاح
يلحق
##عرة
##ذين
كتاكلي
بالضرب
فالحلال
مازو
امني
السابعة
الجنا
الخلاصة
الشرقية
كايبتاسم
دخلهم
اهتم
لقلوب
##تراس
نسينا
##ماتشات
مايدة
تجاها
الاسهم
نحبو
بكى
تغيري
##اويش
طيبين
##صيصة
داليا
الفرعون
تستحمل
مارين
ارتك
مبغيتكش
تدمع
يخرجوا
يبرا
كتقصدي
جسدي
لولادة
حولت
كيخت
مضطر
##جوبة
القبض
عطيتيه
سبابي
قراها
كاضور
وجدتي
نعطيهم
الحصان
فخدمتو
##phone
والحسد
cv
vo
تلوى
تازة
جرى
حكا
دت
طعام
لشوف
ملبس
مطيح
نبه
نطيحو
##صدر
##صايب
##29
##فرا
##ذى
بالتس
العجين
##كرات
املي
وجواد
القاسية
الصب
عنصري
التفر
تيحرك
##جبانو
الطبق
مقام
يتغداو
يتقلق
اتعرف
وكال
لختك
كيتجاراو
غاتعرف
تستاهلو
ارثر
جهتي
قاصدها
بريكة
لوجهة
نغزة
لمحاتو
الحسنة
كرهتك
تفرنس
كيعرفها
بالذنب
صايمة
روبيني
وطلقت
##ليتيكو
انتهاء
برلماني
موريتانيا
شابع
فزينب
يبت
يانيس
##❤👍
الوم
##همها
انهيار
ماذي
ومطلع
النميمة
انتاب
بشح
الراج
توصلها
زينه
صدى
مكتقدرش
يهون
دالز
بوبي
تستهل
ومعنديش
فتاريخ
مرتين
##حشموش
الحاجب
كارزة
كتختار
الصحفية
هايم
مرضها
ساهلين
صاحبنا
البطن
فرحتلك
اطلق
تربا
المتوسط
تبركاله
شاهين
واعدتك
بوحدهوم
الرمادي
الكوستيم
البسيط
البوشتاوي
res
بفيديو
جراة
دصباح
سادين
ضخمة
😭💔
##ودي
##شحال
ديالى
الحضن
بالزواج
بالحساب
ايديهم
الفل
مشهي
وتبر
وتعيط
##طيلات
اسير
اسوا
##لامس
دارهوم
وعيت
مرد
ميوقع
تقدات
ريبي
بسميتي
يتجمع
وخاشي
موضة
يسولها
قبلهم
##خصني
فقاعة
ديربي
يدل
اجرك
##حوار
دوارة
##تحتاج
فصبعها
التويتوما
##غمضو
قادت
فضلو
مخليك
تقلبت
##عاوني
##ena
مسحها
لمحطة
تريكت
تحيدها
ويخليلك
حضيو
ﻭﺍﻟ
حنونا
ومابغاش
وجزاكم
بمرض
جاعر
حيرة
شهود
##زلة
##بص
الماني
##ماقي
انسى
##اوى
بالاست
##كران
اوقع
##جيبو
وتقطع
السمعة
التلج
يعتق
##فسير
يديم
باول
لكادو
لقاع
تخوف
استغراب
الامكانيات
غتقولي
يفاجيها
##حابو
نديرلك
عاماين
جمعاتها
الرياح
مكيبانش
بوهم
ندورو
شوفيه
بارز
قصوحية
##حنش
تاكي
مخليهم
الظرف
الاستع
لفرق
سهلا
تنتهي
تلاحيت
طايتها
تلقايني
فامان
يفرض
توردو
نحيدها
raja
رخصة
الكوكاين
امازيغ
افعال
الذكرى
مونيكة
بطو
حشا
شلح
طيرات
غاز
##جون
كيدو
كيغير
##لومين
فالنو
عندا
##ستح
##اديمير
السلي
##مرني
تعجبو
##اطفال
الجلال
الخد
وبكيت
محرم
وعيد
مرضو
يديكم
##عومة
لحومة
اعاونك
تشع
مصمة
##متكم
حمارت
اجاب
تغدينا
اخيك
كمارتو
شفايف
تفكرها
تدعمني
لشيفور
طبعها
المصاريف
متاكدين
فالطابق
تبغيو
موتى
تعياي
سبقني
شناهي
كيزرب
رزقها
والاخلاق
افكاري
ونفسو
فالزاج
مجهزة
بمشقة
المذاق
فعقلك
جيرانا
فالتويتر
يلك
❤🌹
ﺍﻧﺎ
😂ال
😅😂
##غطو
المينوط
كتفك
والاخر
##كيس
##ميسات
##تكاك
##بلت
##دمها
##تحية
##بعض
اعمو
الراق
##سوايع
غنديك
##بابل
##عمش
زينك
مستع
بوطو
##تهمش
لتماك
فكرش
البيج
بالعاني
جنونو
حرير
لبسالة
النامسية
قفزو
كضحكو
الكوميديا
تقوي
الودادين
العربون
عويناتي
التفاح
والكلام
كتقوليه
فالاستقبال
بذات
لقرايا
والاحسان
شاغل
ودكشي
وكلامك
لحضنو
كبدتي
بالسيارة
العاصفة
وزايدها
##anova
مفيكسين
قاميجتو
origine
رحال
غاك
غما
فصراحة
يبد
##مدي
ليخت
##لابال
كيخليك
كتمص
العلامة
الفيران
امهم
احق
##لاتك
الكوف
كايوقع
مراجعة
لحرب
بشفاء
وكالة
بلخلعة
##سواس
تشوفوا
زينو
حيداتها
لاحولة
معندهومش
##دويو
يوميات
كتشهي
منافس
كيرضع
الماسونية
والدينا
وريان
عاطين
بينيامين
##aya
مسخيتش
نبغيها
بذرية
البلاستيك
كطيري
مبدعة
khal
##هضريش
تدوش
تادير
زمل
غربية
نادم
##فركع
##قفات
##يرال
كتنين
##موقراطية
ومحت
اشافيها
بزايد
نتاكدو
اسفيان
ونخ
لعض
لعبي
مزيان😂
لماك
نعلو
لحتي
لحزن
وسيرو
تسالات
اعطيه
الغرور
نسر
##وشوار
اتقو
وفاتي
اخرتها
سمعتيه
بتد
يقادو
تزن
##باليا
غاتبدا
وصلتها
فكامل
الاعتراف
رقاق
عداد
تايش
تايبان
مطرو
عايشه
الحمرا
فالبلو
محتاجه
نوعية
اعتبر
الطباسل
جيبلي
والفقر
فلحبس
قواها
خطيبك
الكابوس
بعيونها
ستغربات
##خباركش
الكوارث
car
برفض
بموس
تضحكي
خوفي
دقو
زح
طيرو
كحال
مناس
گالو
##يام
##بوني
##bar
##الفين
##افك
كانحماق
##اختي
الباط
وقراي
##ميقة
وتصدم
السمع
ومنس
لباج
التغطية
لعصى
وصول
تنحماق
ميلت
##عوبات
المغامرات
بسالة
الرقصة
وكاينة
ماكو
مايك
مايق
تجوج
لفور
مهمين
##امازي
مافهمش
حقكم
ايدوز
لاكانت
مضوية
ولهلا
اعتارف
لكرشو
وبالاخص
دابالت
لبرهوش
ولبسو
اساسا
الفايت
تلقايها
كايشرب
##وادري
وزيادة
المخلوقات
وشهقات
قهقه
برافوا
ارشاد
zi
ترجم
جاكم
شاكر
وارو
يگول
ڤي
##ياد
##عهم
##فاكش
##ft
ليزاب
كيكت
كيانها
بالال
##وقك
ومتس
متله
احصل
وحزن
ماشيا
كايبقاو
تنشف
تقاسيم
الطنج
كنتح
يسافر
تمشاي
مصرية
عايلته
##رضى
غايديرو
##طلقة
مورك
لجهنم
سواد
نطال
كتسناو
ستاف
##اهيمي
تبعوني
الضورة
حريري
شوافة
كارهة
اوفق
والعافيه
اينما
والسلوان
فاست
الديمقراطية
كيتعشاو
حفيظ
حقيبتها
غطس
فدراعها
مشاعري
سيادتكم
لنقطة
سنيه
طولي
طاليان
ملقاو
نلو
##طوم
##انوي
ليب
منظم
##ايفاش
لاط
##معت
ومنت
وجعل
تعاونك
الدهشة
محطمة
مكوان
اهدر
عيقتو
##سوار
يشطحو
فقناة
تجين
غنخليك
غتخ
##بالاة
سلامت
مستش
انهن
نفك
قصدها
يستغل
المراكشية
الاوسط
واحساس
كيقصد
يغتاص
منازع
كذابة
حولها
الادلة
تنتظر
مغنبقاش
غنتكلف
ودرتي
كتمثل
التنظيم
لمصحة
خبزة
مقصرين
لاغنية
تشيلسي
فالاوطو
حقيقتك
تساعدني
المقصود
dahk
pre
حجيبة
ستش
صامت
ضالم
واين
##صبين
##خاب
##فنك
كيوصلو
الملت
كتقل
كتميل
بالكر
بالضو
السيني
السياقة
بنصف
الخفية
وصباح
##هدل
ميخ
تقتلها
لكوفر
لقنات
مالح
نسق
وليه
خصوصي
لابعد
المشاهدين
وطلات
فحقي
يشوفوك
تعرفوا
الابرة
فموقف
##طوروت
جنوني
الحلول
وتوقف
والماس
##زعج
الالمانية
القبول
خدوج
تيدوي
بنعسة
قيمتك
شبي
صرع
طاع
نحك
گري
ﺟﻨﺔ
ﻭﻟ
##جحة
##یس
##فاتو
##غبين
##ايكم
##امى
ديوها
##ريكي
الهبيل
ومروى
بناني
##فيذ
الجيد
##عيام
مبسمة
غيعرف
##وحو
الغاء
عرفناك
مايتس
الامبراطور
##عبير
تزوري
نشط
مكتزيد
فشحال
فهمتها
مثلين
الحقيرة
لسقها
كتعرج
مرتاب
##سكاو
دفعتو
##ona
وضعت
جبداتها
طموبيلتها
بولدي
يفهمني
وكاينين
##عندك
بذلك
كنتفرجو
مقتول
تخطفات
لبارون
انثوية
صاڤا
98
rah
تطيب
طاعة
عواي
##تون
##مبي
##مكم
##ذبك
المادي
المثير
والاي
والحي
البسط
##معها
متزيد
وجرو
احدا
ويهد
لعنقو
##منضر
تيعطي
##لقايه
اهلان
ماتزيدش
لقمر
وسعاد
بسلاح
اصبري
اصابعو
ورزق
##وشوش
اتفو
##عدبو
ماكلتو
استطع
فرحك
غنقولها
وغادين
المعانات
##سمعك
مثقفة
توحشتهم
مولم
لورا
يصنع
فصورة
##نهام
تبعاتهم
تلفوني
مازالين
عاقو
نبضات
فالصغر
##فارقوش
##ازيك
شديتها
##rom
تبرز
متقدم
البرلمانين
شملكم
انفسهم
azi
اهاد
بلمس
صدام
صمك
لقوة
##ثري
##اماو
بالموس
فالنص
هيهو
##ستار
##ستيريا
مشدودة
متميز
ويجر
ماشافت
مسكت
الكوت
مبنية
مرارا
تفوز
اتبقى
وخط
مخزن
ولية
تجو
استفزاز
لخوه
رايح
ترخا
دودو
##لاقى
فصاك
التوي
كتسمعيني
##chra
يجيبلك
##ختلف
المهرج
اثرها
شنيولة
زهرك
مسيكينة
تعصبي
المثيرة
يابطل
قانونية
وجبدت
وكرشها
كيدايرين
دياولها
بقيمة
ينفعك
الخواطر
##ولوجية
فستانها
الميزانية
حديدة
ضارك
نروح
##ﻠﺔ
الادي
والولي
فالاش
فالكري
ماطلب
هوه
ايبقا
مشعك
السط
ومط
التافه
ابقى
##طويات
الوغ
وعطيني
##ويلا
بصورة
##عوك
##عواج
وساط
تسدات
##وزية
نسيتك
بحرج
بحشمة
نصفي
تهجم
الاختر
منيش
حمقاتو
وكيبان
فيديوها
المعتق
فخورة
اغبياء
104
خلاتك
ازر
حبايبي
المقهى
تصرفها
##لوكيني
كيتسناني
وغيرها
التقنية
وكمال
وتقابل
الباسبور
غيدخل
خنونة
داتاي
الاقتصادية
عطاوهم
العريان
سیمانه
غدايدي
المازوط
identique
زلا
سلع
##گان
##فقو
##ابقو
##ونى
فالتر
فالخير
فالحومة
عندمن
الباشير
ايوقع
الفال
الصهاينة
وبالم
محاص
محشمتيش
تنبغي
تنقل
ميمو
تقارن
وسبحان
مغرية
##لسف
يتد
عرفتهم
المساجد
المواصفات
خايبا
تحتار
تالا
209
بهلع
جبتيه
ويعقوب
مضوي
##اكيو
جدتي
كيجيها
زدتو
لبرنامج
شغلهم
##اوكاو
سهيله
زايدها
برحمتك
تلمح
غتخرجي
بوحدكم
كانقسم
samsung
360
cra
pla
ya
بارف
ذل
زغيبات
ضجة
طناش
عدوك
فحس
قرية
##حرو
##جرا
كيدل
##شيان
##احات
كنكرهو
اختنا
هيية
##نوكها
##ستشفى
اياك
تحكمي
القجع
القهرة
ونقي
لمب
الكاو
كايشم
كايدوزو
خرجتها
لحنة
##وكها
بينت
رياكشن
اعمتي
عيانين
لوبيطال
بحرية
الانعاش
كيتزاد
فمرا
الاولية
وهانتا
ملحو
بالزع
لفيست
اكتافو
##جدب
لسانه
فلبحر
اذنك
يفكها
معجبين
صابح
متفكري
حمقني
بصراحه
كيلحس
مقتنع
الاحدات
##🇲🇦🇲🇦🇲🇦🇲🇦🇲🇦🇲🇦🇲🇦🇲🇦
كاتنخص
ونيفها
تلمسان
فالاخبار
الباليزة
فتلفازة
شهرة
طابق
گاليك
##وث
##كاز
##جرات
##ﻜﻦ
##افح
كتقراي
والالم
##موخ
هواك
مشحر
وتجبد
وتسب
متجاه
نتغدا
اسلم
اسباني
ونغ
كاترجع
غيب
تنغ
لحنا
الطيران
اعبد
الزغب
فعض
مايوصل
اجساد
غاتزوج
لجامعة
يجد
ماقدش
بهاديك
بالمية
كيعاني
صغيره
يطيرو
المجمع
الصحفين
##جمعات
عاجب
العبث
##نجان
نايمار
التقدية
ﺍﻟﺴ
كيدافع
ونعسي
فالفطور
اموات
اثنين
سلخة
حجرها
كرامتي
سينباي
المراهقين
لوزير
نتخلى
ayoub
السوهابي
ينجحك
الاوروبي
belanova
المستشفيات
دابالتذكر
تاركة
زحام
نوت
يبي
##ذابة
##اندو
##ادام
كيعيشو
الحاف
البرس
تعكس
تعويض
القطن
التقو
مغزف
ريافة
فرشات
سمحل
مخطو
استمتع
يقاوم
المسلمة
##عمق
دايرينها
وكترعد
لغيرة
شادني
اغراض
فلفراش
الفراشة
شداتلو
تستغل
كتعلق
نطرات
شراوط
##دتكم
كيعمر
بقاوش
قبول
كنحبك
الكمارة
##عندو
##تيقار
توسكا
وجيتي
يسحابلي
فبرنامج
شفيفها
ورتاحي
فالمجتمع
جغم
فگ
وسيفط
پر
ﻟﻠ
😂😉
##عكة
##ile
##ظرات
##🤦♀
##يرن
##ريبات
كيصرف
كتبيع
والسو
##ربعة
##كنها
البلب
##ميلا
الساحر
اشباه
##كلاري
##قيك
مسر
وعاطي
كاتضرب
كاترد
ماتعرفي
مقالب
تصاورو
توضيح
غتق
غتلقاي
غانطلع
ضحكها
غايعرف
المسايل
ربى
فحنان
مولين
انيسة
الروايات
##طينها
علميني
ودارتو
مكرهت
فرجها
قاتلو
كيطنز
اموري
ميلادها
مفيه
منشورة
الغيبة
غتوصل
فوذنيه
لميساج
الحشرات
وگلس
تشجعات
تشجعوني
يحبسها
وكيدوز
قميجتو
af
بريك
خنون
ضايرة
غروب
فسيف
لنت
يول
ﺑﻌ
##طبل
##طوفتها
##lam
##صك
##جرت
##ﻮﻝ
##ماض
##سيلها
الفوسفاط
امنة
متمني
الدعوات
ابكي
تيفو
النحاس
مزعو
##فرگع
بشو
عيشو
كايناش
بلز
فشخص
فلاديمير
نهربو
لشعر
المرارة
##ناهش
الاجوبة
خيابت
صبرتي
وابتسام
لمسلمين
لاوطو
ينتهي
الكريدي
##aba
قشعها
مابغيتهاش
تفاهمو
الخشنة
اتجهو
شلاضة
وسمعت
ريوسكم
تجربتي
قلعات
فالرملة
السكريتيرة
الموهبة
jus
حلق
قايل
##حاء
##سش
##ای
##اوفو
##der
##تيحة
كيدوش
كيهمس
المغي
الهنا
اناقة
##اعدين
فالمشية
كلهوم
وتنف
ومنا
ومكياج
اشعر
وجبة
وحياتي
الويسكي
كاتعني
تيهضرو
النون
سيارته
قالاك
##فرقش
يتصل
اته
لدى
جيابو
يسير
باسبور
باقيا
يشاء
##ديكاس
غنخلي
مدخول
##فتخر
مكتحشمش
فكندا
السيجارة
##ouri
طريقتو
وانور
##جعك
كالسا
شواحد
##قينش
##وارديولا
##رعه
جربتي
تفكيري
الالاف
تعطلتو
اندار
رشقات
تعتارف
140
الغدايد
كايسحاب
واعديني
بالبوسان
##💃🏻💃🏻
خنافرها
ويقويك
##هقهات
نوغمال
39
fun
or
ve
بورط
حفيان
دها
غاش
نوج
👍🏼
🙏🏼
##طريت
##ﻻم
##السو
دياولي
##اقها
وتبعد
##تكار
يعم
مبالات
مردو
##ايرية
خاصوا
الغمة
واقعي
##كسور
حلوف
المسات
فدماغي
##اتهمش
##قلتي
وزاين
لغذا
##صدقاش
شادينها
سيفطي
اراء
المحامية
##تقبل
غزالي
هاربين
قدرتش
ويرد
كيصورو
##حبني
عوجت
دوله
مظلمة
مشفتوش
ذاكرة
وبسباب
سابين
حصلتي
غوباشتها
مفيكسي
اديال
حاشة
خيري
ذنو
طولة
يانو
يماركي
گلسو
##رتها
##زلي
##ظين
##ﺘﻰ
الالت
ليعا
معدل
والنق
ولش
بعينها
مشة
لبنك
بناتو
نتعرفو
ويو
ويقولو
القطيطة
الجوقة
الصافي
##طوهم
##منسية
مغنع
ريفية
مالم
بشرود
الزملة
يتقلب
غانخليك
##ليهاش
##رضاش
اجا
مفهمش
تغلط
يخبي
الدراجة
تعرفني
نزلتي
البيسين
القرع
وانتا
الاجهزة
الاغنياء
تفرجتي
##سطون
قتلوني
والجمال
فالخاص
وعندنا
قادرش
الحساسة
تحرقات
كومبلي
بالنار
تضام
##aka
ونساو
تقتليني
ولحيتو
الصالحين
فالمقابل
فالمحكمة
اقلب
اذكر
جوف
حبوبة
سرف
سانسور
شلوح
ظفارها
مهضرش
❤😘
كيبارك
##رجت
##رجا
##وفرين
والار
لاغير
البكى
ولمن
##اصات
الخضرا
ونقص
لعاقة
الوسواس
الكانة
مبغيتي
مكنا
مكرو
بينتي
تسمى
بقفطان
وخوت
وخافت
وهناء
لانكم
فيديواتك
فختها
لباباك
الفرونسي
رولاكس
خدامات
الايد
كتشري
كيقربو
ماخلاو
نخليهم
اختارت
##ماعيلي
يعطيوك
نجيبهم
كيغنيو
قبالتهم
تندوف
كتحمقيني
فطرتي
وتخرجي
سيادك
عماين
الصراع
تليفوني
روشارج
aded
بارفان
جهان
حاسين
روكان
علها
غطير
فذر
مدوش
هايا
##شير
##خرها
##جاهو
##غش
##غوب
##غوط
##ثه
##vs
##😢😭
##افعة
معناه
انوي
والنفس
هيفين
بيوتي
متبقا
باشا
الدان
الدلاح
مسخة
مسيرتك
وعلاء
مبانت
سيق
سياحة
سيطر
ريف
مزدو
بسو
الزور
مخشين
مخدوم
عرفوه
تخبا
وهناك
كونطر
عطرو
تجوب
اجدة
مستفز
المعاني
الثوب
بطالون
فالمغريب
ماقبل
روحه
انشاءله
##تاركي
بروحي
بالغيرة
قتلتها
الكتكوتة
الالبوم
شربها
التجارة
ارضية
##عاملو
شحنت
وهضرت
قابلها
فطومة
توفات
معدتها
المانطة
مربوطين
03
حكار
شاركو
قفل
نهي
ﻣﻜ
##نحن
##صالة
##ظرها
##اسبة
ديلمها
معبر
المتل
كتقوليها
##هودية
ومحتاج
وجابها
##طيم
##طيات
ويصب
ابريل
الوجيك
وصلا
غيبقاو
نعد
لكس
##نانين
غنرجعو
كيتبسم
##رينغ
##بسل
غايشوف
الموالي
كمارة
فلانة
لاحظات
صفقات
نطول
فتع
حرارتها
شوار
بالجرا
##ريساج
فالحرام
غاليا
لموقع
ويحط
##حطش
وفرحت
غطاتها
فولدها
الشهيرة
گالسين
كتافك
العلالي
ومكانش
وزعما
plus
فوليد
##البيضاء
تاها
جانا
جلايلها
ربو
سعود
غربي
قرى
قارين
كه
مفيق
نهد
نرت
##اذن
##زى
##du
##جاع
##ذبها
المبت
##ماذج
اناست
كانموت
كانقرا
##اخرو
العراسات
##معش
اوال
وتل
متجاو
متميزة
نتنفس
الخريطة
##قيع
لمريم
الوعد
يعوم
تيعجبني
النارية
ماتزيديش
تسو
اعتق
الغذا
نسايية
اتموت
##فهاء
تزيرت
المشروبات
##سمعها
سعدي
##صيك
مكيزيد
10k
##ليكاسيون
الاعلامي
طلقتها
المنصة
والياس
##ريسيا
طولتي
لولدو
معارفين
مكمولة
خلقنا
وصديقة
كفاية
وارزق
تزاديت
النقاط
المثلة
لقيتيه
هرسو
يعجبكم
عاملين
ضريفين
تيا
تزي
تارج
جماعي
لربح
نزي
يخلع
گارد
##وذ
##دن
الاوب
##اياش
##اسح
##ونهم
##شيفة
والفو
ماثر
كنحل
بغمزة
##وجها
وتبغي
وتكمل
متبقاي
##قاتك
وحست
ويحن
##حكح
لمل
كيفور
كاتلبس
بصمة
لحباب
سيج
تساط
يتنهد
وخبط
كونطرا
كتشوفيها
جابد
كتحكم
تردو
دوامة
ادنى
تايقولو
ارعد
لاسبانيا
مطالب
##قينها
وكنحس
كيقرى
##روفة
مخليت
##طيهش
جاوبتك
صورتي
كتسمعني
يتعرض
الترتيب
حبيتك
وضرباتو
هاتفي
سبابها
وافضل
ماشفتي
لوليدة
##عطلو
القصيرة
صيفطت
ماعجبهاش
تقتلي
لتعليم
لوسخ
كانبغيه
سبيسيال
اياخد
الحموشي
وطويل
كافيني
ikram
دعات
طرو
طاقم
عزات
وديت
##نطة
##سطا
##جنب
##ذمر
الالات
##الجو
منقدروش
##ابسة
##ريام
كيخلعو
المخير
##نيكات
بالكري
اخته
ومتش
ومبقاش
متبعو
تحبو
تحتسب
تعشق
تعاقب
الصديقة
عنكش
لملي
يعلمو
كايتو
كايعيط
وصلاة
##ازوت
##مدت
لكود
##اركان
##ترنيت
##املني
وكول
تخسار
لخدامات
##بتني
بخدم
نمشيوا
جلستها
قلتلها
لايكون
مستمرة
##لانية
الثدي
لامعة
##ابيث
اغتاص
قرارات
مكيعرفوش
مادلين
الذهاب
كاسك
الاوايل
فسلمى
تاتير
##صحف
والحليب
الشرعي
بالتالي
كيطرا
عاصفة
لوجهك
نردو
وربع
عجز
روايح
كطبطب
صرفقها
مراهق
ترخى
الخنزير
ضراتني
تدم
حارقة
ضام
طليق
علقت
قلك
لاكل
لاله
هظر
وطيب
يكلس
##اثير
##37
اناقتو
والنص
العضو
فالصد
الباش
ولحم
كلاتها
##كيتي
وتستاهل
وجديد
ويارب
##ومبيا
ونعيش
مرش
##عونا
لحمق
لقانون
##ترمو
وكند
باسلة
بجهالة
يداوي
جلسوا
حالت
##صرون
وزيت
الدرك
كتحسو
دوزاتو
##علمي
وطلقها
دورتموند
مهمومة
تستمع
بالعما
الضعيفة
##حشميش
انسانه
وبغاو
تهزت
الارادة
النوعية
حبيبو
مختص
تعاونوني
مرفقها
##اقلش
ينساها
حدودك
ماعجبكش
اتجاهو
تذكرات
باصابع
كنصحك
ارهابي
نفيقك
وخنزرات
aw
dj
حوتة
هموم
يلق
##سرك
##صاح
##py
##تيج
##افتو
الهروب
كتلت
كتعدب
والنو
##اوليش
الحقيقه
##رفز
اوق
السطوك
نتاح
اسارة
ونرتاح
كاياكل
وعاي
كاتجيب
وسلامة
مغرور
مقطر
الزرع
عيوش
موالو
كاينه
بجنا
بانلو
غايتح
مستحيلة
##صداقية
شادن
وطفات
##مارسو
##غرافي
الضحيكة
سرور
ماخليت
قبالة
الاقامة
كنحمق
طرمتها
الهداية
مدرتيش
شفاءك
طفاه
غراب
طريفة
باخرى
فطواليط
السكوت
فظهرها
محيحين
محاسش
وافقتي
نفتخر
##فكريش
بسرطان
mes
توفي
غی
لشو
يصد
ﺍﻭ
🤦🏻♀
##حلو
##pai
##ادش
##اكنة
كيوريها
##ورنا
انولي
والورد
##لومه
الفولتوريز
ومافي
ومدام
لبشر
ويشوفو
لمرح
محية
مسمي
وصاك
سيليباطير
ريكاب
وراسي
وكبير
واقول
قلبكم
تخراج
تخسري
توصلك
عندهاش
فقضية
الاميرات
وكيزيد
##راميات
مكتعرفوش
##ذياب
الاحباب
اقطع
لسجن
كيحرقني
بايع
الضلم
##mes
مشكلتك
واليديهم
وصلاتني
فاطار
تاتر
باستفسار
العمى
غالبة
خويت
طرول
مبتاسمين
##rab
معيار
طاكسيات
كوراج
رسوله
جمهورك
شاردة
سابقها
تشرحي
نعاونها
انظارو
اخلاقك
مكدبتي
البوليزاريو
تكرك
داتهم
شافيك
شانيل
😂واخا
##مول
الاتها
فيونس
##اكيت
معلما
والعيالات
كنفيق
بيسين
وتاكد
متقربش
كيفاه
كاتجبد
##وياش
تيقت
ماتلبس
بروفيل
وشفتي
يحمد
يحسو
اعماقها
بدنيا
لهذ
جيلي
وفجاة
مامثي
استنش
غاتق
##ونسبور
لغاية
يديروه
سكايري
راى
##اسيه
يصوب
##غلطو
الروايض
الناعم
ويعطيها
الصحبة
كايشوفها
##الحمد
##طالقو
كيخط
لموخرتها
الميك
وشافتو
وهزاتها
##قاوم
بسميتك
طيرتيني
الجلالة
ماتوحش
ماشفتوش
يتوقف
تكسل
مكتابش
رحيمو
شميسة
وعاجبها
فالورقة
اناستازيا
var
ابوك
بمك
دود
روهان
غطي
فانية
لمة
هستيرية
##الوك
منضرها
منخافض
والكم
##لوار
بالنف
فالفران
ولحد
كنط
كنرجع
الجهوي
الصبي
ونطلب
الكروب
نعول
فرانا
مقنت
بغيتوا
اتمن
وكبيرة
موري
تشهي
يقصد
##اميلة
##دكور
دواه
فايام
فكره
كالها
كيشدو
عضامها
ايامها
عمروا
##طالبو
عيدك
لمسمن
كيغان
صراحتك
حابسين
توجع
السخون
اونلاين
ونشاط
##abi
ايميلي
المدربين
نفرع
لخدمتي
وبسمة
جوبني
الفورشيط
بغيناه
جسمك
الافتاح
كبرياء
لفضول
اليوسفي
07
اطير
حكوم
شطح
لوش
لصراحة
يشو
😂😭😂
##طوني
##زالي
##❤😍
الرا
##انهم
معارض
العياء
البون
متقبل
##هيزات
تعشى
يعزك
كايمص
كاتعيط
##وسات
ميهضر
ماتديهاش
لقفطان
وساد
الغدار
بشع
اتباع
تصاب
جيسكاو
استطاع
لخبر
الامية
غانحاول
نحطها
##فعول
نشرت
مكتر
الدرع
فشنايفها
##صيه
ماعرفتيش
تايع
ارسنال
بملابس
باركو
تلمي
##ونوبيلات
الولف
##ence
بثقل
كيحسب
شبعانة
تعيق
تضربو
ولبسي
com
كضربو
ماتعصب
بردتي
قبرها
مظلومة
reg
عتقيني
الخطوط
##aire
بظهرها
ومبغيتش
مستقبلك
الصغيور
تفارقنا
تراجعات
نضاضرو
سامسونغ
bad
tres
جارتنا
غزة
##طروا
##جورة
##👍👏
##انف
منعم
فالحلقة
كنض
اونا
السمن
متلف
لعضم
غيوصل
الطال
مزور
درابو
اعفو
لهبيلة
اتن
وخفت
لعندكم
##تيشن
ترمة
فناديا
هبطاتو
فحجرها
فجهدي
وانش
##صوير
كتقدم
##سكينة
نرجعك
انفصام
ودايرا
كاميرة
لويل
مختصة
يتسنى
دبلوم
مخاصوش
يحيدها
تسولني
تقلقت
والراجل
هامدة
معدبة
صعصع
الوارثين
سبات
غدوز
غزات
فمار
قاو
موقفها
##رضو
##ڭول
##tu
##💪🏻
ليصانص
انبقاو
والاو
العراي
فالصو
ولديك
متبت
متزيديش
تعوني
##فيل
الشومبر
##قياس
لمان
محدو
وسعادة
اعطى
بشه
وكلي
الفيلات
وكتقلب
جابلي
معرفنا
206
كينزف
عجبهم
دغمة
باراك
دايزها
لشقة
شرير
شرقات
المراحل
تلاقيتي
والعالم
كدمع
طرفات
شريتها
فهدوء
اثبت
الاثمنة
تيدخل
كنعتاذر
عاطيهم
راوص
مزيفة
تقليدية
تشجعني
##الالالال
الحضانة
مبالغ
الواقعة
خنيفرة
dis
m3
دني
دكية
طين
فنين
لمعة
نفضل
##زتو
##صورة
##ضاض
##ثمر
##ظبي
##mad
##الاسين
ليتي
منيتي
كتكت
كتخليك
الحنون
العلام
##اقه
السماعة
متزيدش
نتصل
##تكو
الخادمات
الشواية
ابنة
الواتس
الكاتب
كانتفكر
تيلفون
ماتات
مغامرات
نوصلها
فرقو
مقربها
وخوتي
فعيد
ماكلتك
لفار
لفولون
استمت
الاسانسور
نشعل
##قلتيش
مكيحملش
الاحسان
##زلش
##عتبر
المجالات
عوينة
فعلاقة
فضلت
##رعان
##طيراس
لمعلومات
ندخلك
##جاوبهاش
الفتحة
المسوولة
ونولي
ونساي
باطو
##خدمي
صادقا
##موسيتها
كتحلمي
وجبدها
وسمعات
تعدبت
غرفتو
البهجة
فماماها
42
شلات
صمطة
##شرك
##لست
##جاهل
##🤦🏻♀
الاضر
##الان
##الني
##افينا
كيسيل
العهر
وقسم
ايلى
متلبس
##اصلت
واختك
ويفي
الصوتي
ابنها
محافض
##tal
كاتقرب
تقاعد
مقبو
يتفتح
وخداو
لواتساب
مجاني
بلية
##سوولية
نقلك
المسك
##زوار
جمعيات
بوشيط
نقولوا
كيحشم
كيراقب
##كارد
ولوات
كيختار
مغيم
فانزها
موسع
الكواليس
لمسخ
يتعالج
يعطيوه
##هجم
يوصلكم
السواد
##حدث
شكران
خلفها
الاضحى
حديثهم
مشاعرو
كنعتادر
معزولة
الاقتصادي
وعايلتو
ayman
مفعول
casa
التكنولوجيا
اضعاف
حیت
دنبي
فمشي
فدين
##خايل
##👏🏼
المني
المفر
العرا
اخط
امره
وتط
##اصنة
##داتني
الشاح
محدودة
مرطب
تيضحكو
الغلي
##مالية
يتعدى
اتهم
اتبارك
##سنط
يسهلك
تخشاه
فقلوب
وكيخ
غايدخل
مانق
تغدات
خلاوهم
الثالت
لتف
ازارو
بارطاج
المجلة
بانتصار
كاتشوفي
تلتيام
وهاداك
فالطبيب
تهدنو
كيضربها
##اعدني
لفردي
تشوفيهم
مونجي
فورما
##lic
مفرقة
تيدور
فولدو
شانطي
وعارفين
ويفرحكم
هرمون
##خسرش
ومخنزر
جوبات
ومابغاتش
الموضفة
وزياد
استسلمات
احبابي
naj
اجتماعي
الحلاقم
بمعرفتك
السليماني
حضرو
داتني
فلاص
لنساء
مارو
وشوفو
##گولي
##ﻨﻮ
##لاض
حتة
##رفش
اوجد
متور
تبقي
بلاستيك
ماتستاهلش
##حيو
بغيتينا
الغروب
قبلتو
مصرين
نقش
مايديرو
استرجع
يقارب
باغاها
بكريم
مستف
بغيتيش
لجبل
لجلسة
205
لساحة
الاعراب
ندب
شفايفهم
كويرة
تفكرتي
كلاكيطة
الذريه
وتعنق
المنصب
دفعتها
##هشرة
واوس
يحفضلك
مدخلها
يهدنها
سميتهم
المونتاج
رزقني
ارزقنا
الاعلانات
وباباك
سنگھ
king
حافي
رموك
شلحة
فمت
##زهم
##ظري
##✌✌
الی
لياسر
المتك
والاه
والضو
والصراحة
العجيبة
##زيلي
##وجات
اشتياق
الصدمات
مسم
كاتهضري
تقطعي
النضال
ياولد
باذ
مالا
مالقى
اكسي
مخدرات
لفاي
ديروها
كيتد
بابتسام
تهناو
نيفك
مانتي
دايرية
##مينان
يهربو
جايبها
فشعري
مكانك
ندمو
مارسة
كيشجع
لبسهم
كيديروها
لابساه
##جاجات
نايمين
امامه
مخاصمة
غضبها
توسع
غواتو
تهامي
الكورسي
بقرصة
العاصير
العشران
لفعايل
الانتقادات
فالظلام
تسليما
اذيب
جرية
شكان
شعيب
طاسة
عديم
غفور
وافي
##واتي
##بقو
##غالي
##ابن
معذبة
##وفين
والكو
والمرض
##ستافد
ومتي
لبرى
وحفظ
لعدو
لعراق
مكرف
الاولة
##جبات
كنتعصب
المغني
مقادير
ورشات
##وشات
يترك
افرج
غايبقاو
فشارع
طيبا
فكلامو
اغنيه
لتص
نهزها
ودخلنا
فتصرف
فسطح
لتحتانية
مطبع
الجواهر
يغمض
ويعافيها
فريع
الشراجم
ماجيتيش
كيتسناهم
حواليها
تفهمها
سوالها
مكملات
لافضل
##رفيق
تفتحو
العوالم
مقودين
اقترب
شنافتو
كايضربو
الطفولية
يرضع
فاجعة
بلايصهم
##اجداجداجداجد
الكادوات
جارا
حفضك
قوق
مرجعو
##طمات
##سدو
##غبو
##الخ
##بيلية
كتبها
كترض
كتيرا
والتش
الحرف
اخبر
##مورية
مشافت
السكون
متاع
تحكو
وجايا
تبداو
احكام
ويوقف
الدنوب
عنكم
عينيكم
وعليها
بلاهة
كاتلقى
تنسيك
تيسير
تقاطع
تقبلو
برق
دراوش
لدينا
مايوقع
مايستاهلش
بابتس
فوزي
مهرة
وكلما
لصبيطار
ندفن
كتعاون
بفخر
##كرياء
فصبع
##سلخ
القراعي
واحلين
تابعوني
لنجاح
متوجهة
##غمضة
جسده
دعارة
##جوى
##فرحك
عتابر
التراويح
عطيتيها
قرايتو
ولفنا
يشدني
كايرجع
مدارتش
رضاعة
تگولي
خضراء
سترينغ
خريطة
يشعره
محاولات
٢٠١
بالتخبية
يحزنون
بموت
ناط
يرس
❤🙏
##سما
##كسو
##زلات
##ارضو
##تيال
كيقوليك
##ماوي
انعرف
الحرفة
بالبرو
العاشق
البنين
كنهدرو
بعناد
وتحك
وتمن
متخص
الجزا
الجوهري
##ومبل
لعج
لمبت
محيط
مسالين
الكاك
كاتجيني
مبارة
ميستاهلش
الطحين
شفناك
وشوق
المغنين
اعاون
فعصام
##سواو
فقصر
لفشوش
الاساسية
حمص
##ارضات
لامن
وطالع
فحقها
فجنبك
##ادراش
نطقي
نيتهم
واحق
حروفها
تزوجتو
حاطو
كتخسر
كيخشي
ونتفاهمو
ارحمه
تمنية
تكمي
امراتي
والكلاب
وماكان
والمشكلة
مخطوفة
النيف
فلخدمة
مامرتاحاش
بوال
فلام
فنز
كرس
لضرب
ﻓﻴﻬﺎ
ﻣﻊ
👍❤
##ساوة
##جير
##ضنها
##یلی
##ye
##ديدات
المضيفة
كتنس
والة
شيب
الباطرون
كنوجد
كنشك
هوب
##ركان
وتغني
ومه
##كتاتو
القاع
القدير
القادوس
وصونا
كاتمشى
النقد
لكوك
لكوزينا
تسبو
لدارت
لوجيك
بلفر
الاسرار
نشك
معرفتوش
يجزيكم
صبغ
سيدني
زيدها
مرتبة
##des
كيعاير
المنفو
##جلسي
يغلط
كتخط
المتبعات
لفيس
خيزو
كيتساراو
بسيارتو
تكلفو
فالجزاير
رونديفو
ذكرتا
اولادها
المنافس
خويتي
يتزوجها
فازگ
تاريخية
##هاهاهاهاهاها
جدوان
وسمحي
##ماكرية
فبلادنا
نتحداك
نتقدا
الوفاء
الجامعي
بصبعانو
وحليفك
مدمرة
قوالب
خادمة
ساوي
ضوي
طربوش
عارية
كفار
نمش
نفيقو
😢😭
##دينة
##ريج
المحرم
العضة
البين
##كرز
تعاشات
وبالها
التدو
ونجيو
لماس
دارلي
مسا
مسير
يعقد
الكينغ
قالتو
مغاير
كنتر
##مانينة
عمى
جيعان
وفاق
بلط
لختها
قلتليها
كتحشمي
فحجرو
ومنقدرش
شخصيتي
##زوجين
تايه
كتسناك
قوليهم
مافخبار
##حشمو
كيشري
فاطر
المقربين
المجو
ساعتاين
بشيء
عوانك
وانتما
##دادية
عزك
عاجبهم
السباق
ضيقة
صراح
ميدخل
يعيشك
كتخرجي
ويحفظكم
نعطيو
لرياض
تفيقو
تختلف
تنقصي
وتستمر
وتكلمات
ملعقة
لماماها
علبه
hamza
وماشاء
نموذج
وعايشين
بنظراتو
بامكانك
الخامسة
مكشكش
75
اک
ربات
طحين
مذكر
يلمس
ﺣﺘﻰ
##حطو
##يية
##ضلين
##ذهب
##wi
##ﺒﺔ
##تيا
##افرين
كيبو
انضار
##حالف
##مرارية
الجنية
وبخير
الشحمة
ونهضر
كاتفهم
النزيف
لقدر
الطاهر
وسلمي
ودف
الغاض
الغماري
الرقيق
وفش
يشدوه
بجوح
عقليا
مدابز
بانكسار
غانجيب
ضربتك
##عمري
سلامتنا
غادوز
تسترجع
رقمك
وماج
ملقيتي
##فقصة
كيتسمعو
##ضحاك
متخافي
كيغسل
كتغز
##حتاجيش
تصاورك
وندمت
عياقة
وغمضت
مهزوز
كطنز
امريكية
كتوريه
التدخين
ومبغاتش
رمشت
العفريت
aut
تقاتل
صورو
فروح
كابر
##حول
##يور
##جى
##cl
##ys
##☺☺
##ﻳﺔ
لياسين
منيرة
##افعين
كيهرب
لاصل
كنحيك
ولاخور
##وتات
احيد
تعقلي
نتك
##قيسو
ونها
##ast
مسابقات
##دامي
وصداع
لكريم
تسحر
تسهل
اصلها
اكبي
جيبك
باسمك
ديرولي
غنخرجو
كيتب
تزعم
نحمد
الرجاوين
فكورة
شاداني
جلون
قرنا
شوفيها
كوري
ايديرو
لاكط
بالوطو
##فينال
بليزار
تبغيها
خلعتينا
تبدى
قويه
##نطن
نشريها
بلهجة
المرحومة
سماطي
حضرتك
منطقية
البوكسر
يشتغل
بقبلاتو
الالكتروني
التهديد
تمخشات
دراغ
راخ
سدها
صلاو
طماعة
😂😅
الملق
هادفة
##يده
##توديو
فالجو
كنغير
##زيو
##ستون
لبنية
لباركينغ
تبل
وبلع
ليكاين
الكعبي
كاتدوز
تيلعبو
وشديت
طلعتها
يتاصل
مخز
مخبيا
هداف
عرفناه
مامفهوم
نقذ
افرجها
لخوها
بانطوفة
تزعط
##بسمة
ركزو
الهموم
السيس
السياح
حركتها
كيحسو
سخيتي
حداهوم
تلاعب
متشبت
قادراش
متقلقش
عرضو
التطبيقات
وحيلك
بودريقة
تختاري
صلاتك
المهاجرين
ارقى
انتباهو
لومبيلونص
يبعدها
مقزبة
شغاندير
لوتشي
طاكوس
متفاهمين
best
vous
افو
دشي
عراضة
ماجي
##خض
##فدو
##غلك
##بيونز
كيخليه
الميم
الهندي
الهردة
والات
والمنا
##لوميات
ولی
مشاش
وتونس
وتبقاي
متخليهش
تعاق
لمه
كايتم
تقنطي
##حيلات
برش
فعرو
وفلوس
مصل
قلتيه
الامين
وغال
نيشن
مكتبو
سيرفيت
بوعو
##دتني
مبغتش
وتعطي
لنقاش
##مناها
شغادي
ترجعها
وتوصل
والمج
كايتنهد
ومتع
وخلص
فالجامع
القوادة
ندمان
الكيس
كتغوتي
اطلاق
وتخشا
نظرتو
وندوز
لرجاء
وخلاوها
مخصهاش
فظهرو
البرلماني
gta5
اصابعه
بوصوفة
##لصقو
الودنين
ومقدرتش
نظاظرو
ماتعطليش
المجموعات
تنتاحر
ازواج
باخر
تغي
تمالك
شتها
ملاي
وبيت
##كاين
##ینه
##قن
##غون
##ثت
##ذرة
التيشرت
##اشين
##افش
الهضر
والفي
بالكرسي
عندى
ماطال
بعجاج
##رحيب
ومركز
لبري
##لاتوش
ونتح
لعياقة
لكولشي
ماتوا
الطاهرة
وسكينة
انتابه
مخارج
وليل
حناك
تجار
علش
جوغ
##بسب
##جريو
مكتسمعش
ترديها
فلحيط
لاشي
حاجز
صحه
الاوكسجين
تخلف
قولولي
بالحجاب
كيساين
##بريو
##ماعن
فمكناس
لفرملية
تفهميني
اعتذار
صديقتها
ذيب
الكيف
السوري
ضرسة
عكسها
تعطلي
فطريقك
ناموسيتها
الضيافة
##عطلوش
مزيونة
مهزلة
وتفكرت
بشوفات
لطموبيلتو
فانتظار
##برقوق
moroco
ماتمنيتي
بالنسبه
الاريكة
##ليكوبتر
09
zahra
باض
تون
فطيارة
قوتي
مضو
هيتم
وضي
وريم
يلح
##وبها
##قري
##gر
##اكسة
##ندش
انبقى
بالفي
العمة
##زيتي
ايزيك
ايمتى
بيمو
وحناكها
الصقر
##ومها
##واهم
مسندة
وعاط
مباد
##عومو
ماتشوفش
شفتوا
يحلم
اصابة
موخرة
تصدر
لوغو
يفكرو
خلصة
مكتح
لغزال
فخم
فلداخل
##دوزش
يحفظه
ندی
حاجتك
تايف
##لايض
صديقات
طولها
فضله
وضوح
تكلمو
وحداخ
لاصحاب
باحسن
البودي
كيجاتك
تضربها
حصلات
اديري
لبالكو
وبعدين
غانتزوج
احفظكم
تجبدات
ماينطق
نحاولو
face
نخطبك
##😂🤣😂🤣
متخرجيش
وانوضي
بتلعثم
sha
tan
ازو
جمرة
حنية
خاسو
دهن
صناعة
طابت
علوم
عظيمة
فسرير
لزينب
##gu
##king
منسمحش
ديديكاس
كيليميني
انينها
كانعرفو
##سيطة
بعينه
وقوة
السلم
اشرح
احبها
كايمشيو
ماتف
سيلي
برض
تسنيت
##ضيض
اصط
بشعر
كونما
يقع
وكيشوفو
ينكر
تكايس
فنجان
اغالي
لبيسين
سوشي
تخلطات
يطلبو
المخدر
كحلات
دفعني
بالحمل
تركبي
كتبغيو
قواعد
حفلات
مدوخ
##صليو
اتجهات
شنقات
##😭😂😭😂😭😂😭😂
سراول
##🤦🏻♂🤦🏻♂
مافيكش
تشاورتي
min
خونة
سرك
سبها
عرا
عرات
فاتها
كضيع
مونس
نفو
ياء
##طرف
##کل
##ﺎﺵ
منعو
انم
انسي
##ربك
##رباو
كانبكي
العفن
دابا😂
##دراهم
بيو
مشط
ومخلو
اشر
اشهاد
تحضري
احياء
نتخيل
##لمكم
الخس
الخنا
عنقك
كيفرح
كايطير
وعمي
وصى
مبدا
تنظن
تقني
يحجبك
اعل
تصلاح
وليالي
مابقيتي
بتمنى
##قتكم
##جرم
واعرا
##نديشة
السيتي
عشيرك
السلامه
لشرجم
##بيبيط
ماسكارا
طرطقت
متبعا
فاسرع
حاضياها
المنتخبات
ملاهي
مربين
دعوات
الشكارة
اموسيو
طيرني
زرتك
تندب
وهمست
نفرط
اتصلت
لريال
حماقتي
ونورسين
المضمون
محاسن
رعشة
han
sami
تدين
جنو
ذكاء
طقوس
لطر
نمي
##نحة
##سق
##ple
##ﻧﻲ
الموسط
##ندات
انى
##توكول
كانا
بالقران
العنين
فالتق
اخالي
الساخ
متملك
تعاودو
الجهات
الخاوة
لمادا
##طوانة
الكولي
وعاق
كاتولي
##فسهم
عادا
فرنك
##ترت
درناه
وخالد
تصريحات
##هرت
استقر
عقت
غنقتلك
غايتق
عصى
الشيوخ
جمعاتهم
ينفعو
دالمرات
##اروبا
ستايل
##قايس
انوارة
باستنكار
عنقاتني
##جداجداجداجداجد
الاصابة
الحيحة
تبسماتلها
وكاتبكي
ضعفو
##عطيو
تنساها
فابري
كنعاني
ثلاثين
شوهتو
قنوفتها
ومالكي
استاذن
برحمته
ناكلها
تسيطر
الهاشتاغ
تعنيقة
##غريتة
راضين
وهران
فالركابي
ضاغط
غوارديولا
كرت
يغم
##ناوي
منقوش
كيجاوب
المحر
والرج
والخي
السعي
متجر
متخلف
تحاس
لبوز
واخذ
القلوبة
الشلحة
كايعني
تيقو
تياكل
وسرعان
##ترع
عمال
عمية
يتكر
وكيدير
ماكناش
##اهمة
##وايات
غندي
غترجعي
حمقاتني
فواتساب
مشيطة
بطلتنا
فنصاص
هبطاتها
دايمة
سيدهم
القرارات
حقيرة
كيعصر
ادمان
عاوديها
شكارة
الاجازة
نبني
عزري
متبعاها
الاصابع
مكمول
ورجاء
وعرفتي
احتفال
قهوي
تويتات
والانسان
وتوجهت
تعابيرو
يتراجع
نطلقك
تكرفس
ﺩﺍﺑﺎ
ناهيك
تمة
ضريب
لولو
هشيش
##حنو
##دادي
##ute
##غليش
##ذوق
##ونطو
كيقدر
الحام
اليتي
الفيت
تحيات
وبلال
لمصر
الوضوء
كايدق
مرداتش
قاله
برطمة
يتيري
حيديه
وهنينا
##يله
المشقوف
نشكي
##خراج
اداب
تاعكم
اراي
المحترمة
تابعينهم
يكفيني
تلاقي
##خيلو
##خيلة
عزكم
يعتارف
الكواكب
##🇩🇿🇲🇦
ربعت
كادوات
وذلك
كيكدب
##ily
تنفاجر
خلصاتو
تضغط
ميدان
شناوا
inf
يهودية
صادمة
عكاشة
زوروني
واعدتيني
لسويت
الاذاعة
تنزلها
انفسكم
##عليقات
رغبتو
اكثرية
عشوايي
كانتسناك
نحتافلو
لته
❤👍
##جنات
##غلب
##ھی
##ko
##اكول
معولين
كتخليها
والعد
##توريا
بالنقص
البهايم
هواية
بيضات
مشوار
وتكر
وتصور
وتفتح
تعاودها
وياربي
وصندالة
##ناتش
وكا
عيق
تصحاب
يسجل
تخصر
وهضري
عايلتهم
بحواجب
لخالتي
ديرهم
ضحكاتو
ضربتيها
تزين
مكتبة
قراند
يرحمنا
##تلهم
يحفظنا
بمرح
vip
شرعي
بالمغربي
عواشرك
قتلاتو
نوضاتها
كايتف
فالطاكسي
نرجعوا
تبسملها
نصيحه
##ذكرى
احبتك
المكتوب
##ارطاجي
ومغن
كاتشرب
وهمية
فرانسيس
لادارة
لبسوها
لاجودان
عنكبوت
التماسيح
فوطوكوبي
تارودانت
كتسنط
صاوبات
وابتسمت
مزاوكة
voi
باعو
ذوي
سلة
شاحبة
غلف
كليك
لضي
لاسم
يبقاش
##lan
##ثات
##tes
فيقات
المخص
##يتشو
كتهمني
والفيديو
الحوالا
##اخيش
فالار
هوليود
الفلو
السوفل
بنار
الشابة
لمريض
ابحال
كاتبوس
مكدير
مزرو
تساع
اتشوف
تخشيت
مابيا
يشفع
بجمالها
##خلوا
تغبن
وكتضحك
نشت
الريفي
لامير
وطفا
الاباله
نضارات
متوثرة
##جيبش
##خبى
فالكورة
حنكي
##سطى
الماستر
محتج
تبغيك
كتنطق
[...]
